#if defined __ICCARM__
#define __ALIGNED(x) __attribute__((aligned(x)))
#else
#define __ALIGNED(x) __attribute__((aligned(x)))
#endif
const unsigned char model1[] __ALIGNED(16) = {
0x4e,0x4e,0x43,0x55,0x01,0x00,0x01,0x00, 0x01,0x0e,0x09,0x00,0x07,0x00,0x00,0x00, // 16
0x02,0x00,0x00,0x00,0x00,0x00,0x00,0x00, 0x18,0x01,0x00,0x00,0x02,0x00,0x00,0x00, // 32
0xe0,0x01,0x00,0x00,0xc8,0x00,0x00,0x00, 0x18,0x01,0x00,0x00,0x00,0x00,0x00,0x00, // 48
0x00,0x00,0x00,0x00,0x00,0x00,0x00,0x00, 0x00,0x00,0x00,0x00,0x00,0x00,0x00,0x00, // 64
0x00,0x00,0x00,0x00,0x00,0x00,0x00,0x00, 0xff,0xff,0xff,0xff,0xff,0xff,0xff,0xff, // 80
0x43,0x4d,0x44,0x00,0x20,0x00,0x80,0x00, 0x50,0x00,0x00,0x00,0x00,0xfe,0x00,0x00, // 96
0x73,0x6d,0x61,0x72,0x74,0x63,0x61,0x72, 0x5f,0x61,0x64,0x5f,0x64,0x65,0x6e,0x73, // 112
0x65,0x5f,0x64,0x72,0x6f,0x70,0x5f,0x30, 0x31,0x5f,0x61,0x64,0x53,0x69,0x7a,0x65, // 128
0x5f,0x31,0x5f,0x6e,0x6f,0x62,0x6e,0x2e, 0x68,0x35,0x0d,0x0a,0x53,0x61,0x74,0x20, // 144
0x41,0x75,0x67,0x20,0x31,0x35,0x20,0x31, 0x35,0x3a,0x35,0x32,0x3a,0x30,0x33,0x20, // 160
0x32,0x30,0x32,0x30,0x0d,0x0a,0x31,0x34, 0x20,0x62,0x69,0x74,0x73,0x0d,0x0a,0x6e, // 176
0x6e,0x63,0x75,0x20,0x76,0x65,0x72,0x20, 0x30,0x2e,0x30,0x70,0x0d,0x0a,0x00,0x00, // 192
0x00,0x00,0x00,0x00,0x00,0x00,0x00,0x00, 0x00,0x00,0x00,0x00,0x00,0x00,0x00,0x00, // 208
0x43,0x4d,0x44,0x00,0x20,0x02,0x00,0x00, 0xd0,0x00,0x00,0x00,0x10,0x02,0x00,0x00, // 224
0x00,0x01,0x00,0x04,0x07,0x0a,0x06,0x0d, 0x00,0x00,0x00,0x00,0x00,0x00,0x00,0x00, // 240
0x01,0x00,0x07,0x00,0x01,0x00,0x01,0x00, 0x8c,0x00,0x01,0x00,0x00,0x00,0x00,0x00, // 256
0x0a,0x00,0xff,0xff,0xff,0xff,0xff,0xff, 0x00,0x01,0x01,0x00,0x18,0x01,0x00,0x00, // 272
0x00,0x00,0x03,0x00,0x0e,0x00,0x00,0x00, 0x00,0x00,0x00,0x00,0x00,0x00,0x00,0x00, // 288
0x00,0x00,0x00,0x00,0x00,0x00,0x00,0x00, 0x00,0x00,0x00,0x00,0x00,0x00,0x00,0x00, // 304
0x00,0x00,0x00,0x00,0x00,0x00,0x00,0x00, 0x00,0x00,0x00,0x00,0x00,0x00,0x00,0x00, // 320
0x00,0x00,0x00,0x00,0x00,0x00,0x00,0x00, 0xa8,0x07,0x00,0x00,0x18,0x01,0x00,0x00, // 336
0x97,0xfe,0x21,0x0b,0x8a,0x00,0x65,0xf0, 0xd1,0x08,0x9b,0xff,0xa3,0x04,0x80,0xff, // 352
0xa2,0x09,0x2b,0x05,0xbf,0xf7,0x60,0x13, 0xf3,0xfb,0xc9,0xfd,0xe6,0xf2,0xd5,0xf7, // 368
0x41,0xfc,0x9f,0xf6,0x23,0xf7,0x5d,0xf9, 0xce,0x00,0x36,0xf2,0x3f,0x0b,0xf7,0xf8, // 384
0xc6,0x01,0x9f,0x01,0x8e,0x02,0x96,0x02, 0x05,0x06,0xc2,0x04,0x93,0xf5,0x2d,0xff, // 400
0x70,0x07,0x03,0xfe,0xba,0x0b,0x86,0xfe, 0xd0,0xff,0xd4,0x04,0xa3,0x06,0xa0,0xf7, // 416
0x17,0x00,0x82,0xff,0xc5,0xf8,0xdd,0xf6, 0x5f,0x07,0x86,0xf6,0xf2,0x00,0x61,0x03, // 432
0x64,0x0a,0x11,0xf8,0x8f,0x05,0xdb,0xf6, 0xc3,0x04,0x61,0xf8,0xaf,0x06,0xe9,0x06, // 448
0x5d,0x06,0x37,0x08,0x88,0xf0,0xe2,0xfb, 0xc2,0x0a,0x5f,0x09,0xd3,0xfe,0x73,0xf6, // 464
0xd4,0x06,0x1f,0x03,0x6f,0xfc,0x6b,0x0b, 0x13,0xf5,0xd0,0xfb,0xca,0x00,0x32,0x09, // 480
0x7e,0xf8,0xa7,0xf6,0x9c,0xf8,0xd0,0x08, 0x6d,0xed,0x4f,0xf2,0xef,0x0a,0x06,0x03, // 496
0xc7,0xfa,0xc5,0x00,0x61,0xff,0x19,0xff, 0x7c,0x01,0x24,0x05,0xf3,0x02,0xe2,0x05, // 512
0x06,0xff,0x29,0x0a,0x9f,0x07,0x06,0x0e, 0x99,0x04,0xec,0x05,0xc9,0x08,0xa6,0x02, // 528
0xe0,0x02,0x99,0x01,0x81,0x01,0x3e,0x03, 0x31,0x05,0x2a,0xfb,0x25,0xfc,0x04,0x0a, // 544
0xd7,0x04,0x9e,0x0b,0x68,0xfd,0xdc,0xfe, 0xe1,0x02,0x27,0x08,0x3e,0x08,0xb1,0x0b, // 560
0x49,0xfd,0x1d,0x05,0x0d,0x04,0x1c,0x07, 0x67,0xfd,0x5c,0xfa,0xa7,0x02,0xeb,0xfe, // 576
0xfd,0xfb,0x59,0x00,0x5b,0x08,0xff,0xf6, 0x00,0xfc,0x7e,0xf0,0x00,0x04,0x03,0xf7, // 592
0xa7,0xf5,0x7c,0x07,0x71,0x02,0x9c,0xf7, 0xf1,0x07,0x4d,0xfd,0x5e,0x05,0xfc,0xf5, // 608
0xe9,0x0e,0x85,0xf2,0xb7,0xfe,0xf4,0xfe, 0xcd,0x03,0x32,0x03,0xd0,0xfb,0xfc,0xf5, // 624
0xb9,0x01,0x65,0x0a,0xb8,0xfd,0xb9,0x05, 0xa4,0xfe,0x52,0x04,0xc8,0xf7,0x86,0x0e, // 640
0x2a,0x05,0xd6,0x04,0x92,0xff,0x40,0x02, 0x66,0xfa,0xea,0xff,0x99,0x10,0x0c,0xfd, // 656
0x65,0xf4,0x56,0xfb,0x03,0xfe,0xab,0xf9, 0x65,0x06,0x20,0xf1,0x2f,0x08,0x07,0x07, // 672
0x9c,0x01,0xca,0xfc,0xd2,0x0b,0x7d,0xfb, 0x20,0xf9,0xbf,0xfd,0xc9,0xfe,0x69,0x09, // 688
0x75,0xfb,0xc1,0xfb,0x8e,0xf8,0x5f,0x06, 0x3b,0xf7,0x0f,0xfb,0x98,0xfa,0xe8,0x08, // 704
0xca,0x00,0xcc,0x00,0xb5,0xfb,0xdf,0x05, 0x1e,0x06,0xf6,0x0b,0x78,0x05,0xb9,0x09, // 720
0xd3,0xfb,0xa0,0x0b,0xbd,0x00,0x73,0x00, 0x9d,0x01,0x23,0xfe,0x9e,0x04,0x03,0xf4, // 736
0x08,0x0f,0xae,0xfe,0x5e,0xff,0x40,0x00, 0x27,0xf8,0x07,0xf8,0x1f,0xfb,0x66,0x02, // 752
0x37,0x09,0x39,0x05,0x24,0x08,0xba,0xfb, 0x81,0xf9,0xf4,0xfb,0x71,0xfb,0xfb,0xff, // 768
0xea,0xfd,0x71,0xf9,0x3c,0x02,0x8c,0x07, 0x13,0x02,0x98,0xfd,0x90,0x00,0x85,0xff, // 784
0xf3,0x07,0x05,0xf8,0xd5,0x03,0xe8,0x0a, 0x4f,0x07,0x63,0xff,0xae,0x01,0x25,0xf8, // 800
0xab,0xfc,0x1c,0xff,0x8e,0x07,0x82,0xfd, 0x2f,0x05,0x7a,0x08,0x0e,0x00,0x65,0xea, // 816
0xf2,0xfc,0xe1,0x07,0xe1,0x06,0xbf,0x02, 0xa2,0x02,0xc5,0xf8,0x77,0xf7,0x12,0xfb, // 832
0x79,0x02,0x88,0xf2,0x64,0x03,0x59,0x07, 0x9c,0x04,0xd3,0xfd,0xcc,0x01,0x46,0x0a, // 848
0x8d,0xfe,0xed,0x07,0xc3,0xfc,0xfc,0x05, 0x31,0x04,0x93,0x03,0x99,0x0b,0x6e,0xf7, // 864
0x1d,0xf9,0x67,0xf9,0x3d,0x0c,0x3f,0xfd, 0x9f,0xfe,0x13,0x08,0xb9,0x0f,0x88,0xf7, // 880
0x1f,0xfb,0xa7,0x07,0xbf,0xfa,0x87,0x05, 0xce,0x03,0xf9,0x06,0xd9,0xfe,0x7e,0x08, // 896
0x38,0xfc,0xfa,0x0c,0x26,0xfb,0x34,0x07, 0x1e,0x03,0x6d,0xf3,0x29,0xf2,0x57,0xf5, // 912
0x3a,0x04,0x81,0xff,0x6b,0x04,0xf4,0x03, 0x80,0xf0,0x53,0xfe,0xe4,0xf9,0x52,0xfa, // 928
0x3d,0x05,0xfe,0x01,0x08,0x04,0x52,0x08, 0xcc,0x0b,0x7f,0xfd,0xa7,0x03,0x7a,0xf8, // 944
0x29,0x0a,0xa1,0xf6,0xa2,0x07,0x9f,0x08, 0xd1,0xf9,0x3c,0x07,0x28,0xf9,0x22,0x05, // 960
0x99,0x04,0xcd,0x05,0x56,0x06,0xfc,0xfd, 0x7d,0x08,0x67,0x05,0xc8,0x05,0x40,0x03, // 976
0xea,0xf7,0x88,0xfc,0xea,0x01,0xcf,0x07, 0xde,0x07,0x05,0xf7,0x4f,0x00,0x53,0xf6, // 992
0x4c,0xfd,0x6a,0xfd,0x7a,0x03,0xdb,0x03, 0x20,0x00,0x99,0xf7,0xa2,0x00,0x2b,0x02, // 1008
0x8e,0xf0,0x2b,0x05,0x25,0xfd,0xe0,0xef, 0x0f,0x00,0x06,0xfd,0xc1,0x04,0xe9,0xfa, // 1024
0xbf,0xf4,0x5a,0x0a,0xa2,0xfc,0xcb,0xfa, 0x8f,0xff,0x1e,0x00,0x7b,0x01,0x1f,0x07, // 1040
0xd8,0xf4,0x0d,0x01,0xe5,0x06,0x47,0x06, 0xe4,0x09,0x23,0xfa,0x33,0x03,0x0f,0xf6, // 1056
0x39,0x00,0xd9,0xf8,0x85,0x07,0xe3,0x04, 0x7d,0x0b,0xe2,0xf5,0x90,0x00,0x51,0x05, // 1072
0x8f,0xf5,0x03,0x07,0x9f,0x02,0x75,0xef, 0x3a,0x05,0x66,0x04,0x93,0xf2,0xdb,0x06, // 1088
0x33,0x07,0x7d,0x08,0x4d,0x01,0x76,0x00, 0x2b,0xf8,0xbc,0xf5,0x36,0x01,0x62,0x07, // 1104
0x5c,0xf9,0x83,0x0c,0x8e,0x03,0x56,0x05, 0xca,0x06,0xd8,0x09,0x9e,0xf3,0xc1,0xf3, // 1120
0x8e,0x09,0x14,0xf9,0x44,0x09,0x0c,0x04, 0x5f,0xf5,0x23,0xff,0x53,0xfe,0xa9,0x06, // 1136
0x13,0x09,0x84,0x01,0x42,0x05,0x1f,0x0b, 0xb0,0xfd,0xc4,0xfd,0xc6,0x10,0x44,0xff, // 1152
0xeb,0xfe,0xe7,0x00,0x8f,0xff,0xbd,0x0d, 0xe4,0x01,0xd3,0x04,0xc3,0x00,0xde,0x0a, // 1168
0x46,0xfd,0xa7,0x09,0x53,0xf5,0x09,0xf3, 0x62,0x0b,0x27,0xfc,0x64,0xfa,0x93,0xf7, // 1184
0xd3,0x04,0x93,0xff,0xd4,0x00,0xf3,0xf6, 0xa2,0xfd,0x2a,0xff,0xca,0xf8,0x34,0xf6, // 1200
0x00,0x0c,0x5d,0x09,0x34,0xf9,0x6d,0x04, 0x60,0x07,0x9f,0xfc,0xac,0xfc,0xaf,0xf7, // 1216
0xd3,0xf6,0x7f,0xf7,0x91,0x01,0x67,0xfa, 0x02,0xf8,0xa7,0x03,0x1b,0x08,0x08,0xf0, // 1232
0x26,0x02,0xa5,0xfd,0x8d,0xf5,0x31,0xfc, 0x29,0x02,0x10,0x00,0xdd,0xfb,0xb7,0xfc, // 1248
0xb0,0x00,0x3a,0x08,0xdb,0x06,0x2d,0x00, 0x5c,0xf8,0x28,0xf9,0xc8,0xf8,0x3e,0x04, // 1264
0x49,0x05,0x17,0xf8,0x95,0xf9,0x6a,0x01, 0x36,0xff,0x01,0xfa,0xd6,0x06,0x30,0x08, // 1280
0x13,0xfa,0x77,0x0d,0xc1,0x01,0x65,0x07, 0x8d,0xfc,0x2a,0xf6,0x44,0xfe,0xcb,0xf7, // 1296
0x6d,0xf8,0xda,0x01,0x1d,0xfd,0x72,0xf7, 0xc3,0x06,0xed,0x00,0xf0,0x04,0xd0,0xfe, // 1312
0x15,0x04,0x8e,0x07,0x07,0x01,0x51,0xfc, 0x8b,0x0a,0x96,0x01,0xa9,0xfd,0x1f,0xff, // 1328
0x38,0xf5,0x3b,0xfa,0x87,0x05,0x99,0x06, 0xa1,0x04,0x5d,0x04,0x6e,0xff,0x63,0x02, // 1344
0x88,0xf9,0x28,0x05,0x6b,0x03,0xde,0x03, 0xd4,0xfc,0x87,0x05,0x35,0x03,0x56,0x06, // 1360
0xd0,0x07,0xd6,0x01,0x0c,0xfb,0x3d,0x0c, 0x5f,0x09,0xa8,0x09,0xf2,0x00,0x11,0x03, // 1376
0x46,0x02,0xaf,0xfd,0x5b,0x03,0x91,0x0e, 0xb8,0x0c,0x51,0xfc,0xe8,0xf2,0xfa,0xfb, // 1392
0x8a,0xfc,0xb6,0xff,0xd4,0x07,0xe9,0xf9, 0x9b,0xfd,0x65,0xf5,0x1b,0xf8,0xdc,0x01, // 1408
0x03,0x07,0x1e,0x03,0x60,0xf7,0xab,0xf7, 0x00,0x0b,0x5e,0xfc,0x74,0xed,0x70,0x03, // 1424
0x7b,0xfa,0x6a,0xff,0x64,0xfd,0x85,0xfb, 0xcf,0xfc,0x44,0x07,0xc9,0xf8,0xfe,0xf1, // 1440
0xaa,0xf4,0x48,0x0a,0x08,0x02,0x55,0x04, 0x0e,0x05,0xef,0xfa,0xe4,0x00,0x9f,0xf7, // 1456
0x02,0x0b,0x79,0xff,0x3c,0xfd,0xa6,0x0a, 0x41,0xfd,0xf8,0xfe,0x63,0x04,0x47,0x08, // 1472
0x01,0x07,0x1a,0x04,0x10,0x02,0x92,0x0d, 0x49,0x02,0x34,0xfd,0xa5,0x01,0x0d,0x06, // 1488
0x72,0x00,0x06,0xf9,0xf3,0x0c,0x4e,0xff, 0x09,0xfb,0x5d,0x07,0xde,0x04,0x87,0x09, // 1504
0x84,0xfc,0x3a,0x04,0xb4,0xfe,0xab,0x02, 0x8d,0xf0,0xc7,0x0b,0x8c,0x06,0x2e,0xf5, // 1520
0xca,0x08,0x62,0x00,0x24,0x01,0xeb,0x05, 0x35,0xfe,0xeb,0xf6,0x16,0xfd,0xae,0xff, // 1536
0xc5,0x09,0xaf,0xf9,0x0b,0x07,0x11,0x02, 0x8f,0x0a,0x15,0x03,0xae,0xfb,0x5a,0xfe, // 1552
0x59,0xfd,0x0e,0xfe,0x34,0xfb,0x63,0xf8, 0xcd,0x06,0x5d,0xff,0x35,0xea,0x09,0xfd, // 1568
0x15,0x04,0x17,0xff,0x51,0x03,0xd2,0xee, 0xf6,0x01,0x7e,0x0a,0x4d,0x03,0x40,0xf4, // 1584
0xd1,0xf7,0x57,0x05,0xe0,0xf7,0x5d,0xfb, 0x1c,0xf8,0xce,0xf7,0xfc,0xee,0x57,0x04, // 1600
0xce,0xf6,0xca,0xfd,0x96,0xf6,0x51,0xfe, 0xc0,0xfe,0x6b,0xfb,0xf2,0x03,0x5c,0x05, // 1616
0x7f,0xfb,0x26,0x07,0x65,0x06,0x48,0x03, 0xd2,0xff,0x96,0xf3,0xcc,0xf6,0x28,0xfc, // 1632
0xda,0x00,0x2d,0x04,0xef,0x02,0xdc,0x02, 0xa8,0xef,0x08,0xfe,0xf8,0x0a,0xee,0x07, // 1648
0x15,0xfc,0xa8,0x04,0xd3,0xff,0x9e,0x01, 0xa7,0xff,0xeb,0x07,0x45,0xfa,0x81,0xfe, // 1664
0xbc,0xf5,0x90,0x06,0xff,0xf8,0x01,0x05, 0xcb,0xf9,0x75,0xf8,0xbd,0xfc,0x2a,0xfb, // 1680
0x51,0x00,0xb4,0xf5,0x22,0xfd,0xf3,0xfb, 0xbb,0xfd,0x5e,0xfe,0x1f,0xf8,0x78,0xf4, // 1696
0x50,0x02,0x11,0x05,0x81,0xf5,0xfe,0x07, 0xc4,0xf1,0xbc,0xfb,0x24,0x02,0x93,0x08, // 1712
0x5a,0x09,0x07,0xf5,0x46,0x09,0xf3,0xf9, 0x58,0xf9,0x07,0x0b,0x95,0xfa,0x06,0x00, // 1728
0xb2,0x0d,0x70,0xf4,0xf9,0xff,0xcf,0xfe, 0x63,0x03,0x91,0xff,0x78,0xfd,0x5c,0x0c, // 1744
0x62,0xf9,0xe2,0xfe,0x23,0x03,0x99,0x0f, 0x21,0xf7,0xa7,0x07,0xc2,0x08,0x74,0xfa, // 1760
0x0f,0xfc,0xb4,0xfc,0x70,0xfa,0x14,0xf3, 0xfa,0x04,0x48,0x08,0xb4,0x02,0x5a,0xf4, // 1776
0xe3,0xfe,0x51,0xff,0x1a,0xff,0xdb,0xfd, 0xdd,0x09,0x1c,0xf5,0xaa,0xfe,0x25,0x02, // 1792
0xec,0x08,0x73,0xfc,0xfb,0xf5,0x10,0x07, 0x06,0x0c,0x26,0xfd,0x98,0x06,0xdf,0x05, // 1808
0xf3,0x07,0x87,0x00,0xd8,0xf2,0x49,0x03, 0xd4,0x01,0xbb,0xff,0x41,0xf9,0x8b,0x02, // 1824
0xa1,0x05,0x9f,0xfa,0x7a,0x04,0x5d,0x03, 0x0a,0xfb,0x01,0x0d,0x7a,0xf5,0x09,0x04, // 1840
0xfa,0x03,0x3c,0xff,0x2e,0x06,0xe9,0x07, 0xd3,0xf1,0x1b,0x0e,0x90,0xfa,0x82,0xfa, // 1856
0x91,0x0b,0x0b,0xfe,0xc9,0x00,0x94,0xfc, 0x06,0xfb,0xa5,0xed,0xe9,0xf9,0x84,0xfb, // 1872
0x9e,0xf9,0x0c,0xff,0xa0,0x06,0x07,0xfa, 0xb3,0x04,0xff,0x05,0xd0,0xf6,0x2b,0x05, // 1888
0xff,0x04,0xd3,0x02,0x58,0xfe,0x3c,0x02, 0xef,0x04,0x0c,0xfd,0x92,0x07,0x9b,0x0a, // 1904
0x28,0xf3,0x72,0x04,0xf4,0xff,0x16,0xfc, 0x1d,0xf6,0x3e,0xff,0x0b,0xf7,0x68,0x07, // 1920
0x8d,0xfa,0xb6,0xfa,0x4e,0x05,0x29,0x0d, 0xb6,0x0a,0xf3,0x10,0x64,0x00,0xe8,0x02, // 1936
0xab,0xf1,0x2c,0xfb,0x6a,0x0d,0xd0,0x06, 0x30,0x04,0x91,0xf1,0xba,0x04,0x98,0x01, // 1952
0x16,0xf6,0x62,0x03,0xe0,0xed,0xa4,0x02, 0x17,0x06,0x88,0xfc,0x01,0x05,0x3e,0xfa, // 1968
0xcb,0xfe,0x61,0xf6,0x8a,0x08,0x4b,0xfd, 0xab,0xf4,0x39,0xf1,0xa4,0xfd,0xf0,0x04, // 1984
0x89,0xf9,0x31,0x02,0x53,0x06,0x12,0x08, 0x2d,0x02,0xe9,0x07,0x2a,0x07,0x01,0xed, // 2000
0xbd,0xf2,0x5b,0x0b,0x54,0xfe,0xa6,0x05, 0x04,0x06,0xd8,0xf8,0x5f,0x00,0x32,0xf0, // 2016
0x38,0x02,0xba,0x09,0x75,0x04,0x66,0xf0, 0xcd,0x06,0xc8,0x00,0xb1,0xfa,0x49,0xfe, // 2032
0x22,0x04,0x97,0xfd,0xb4,0x01,0xf5,0x1a, 0xd4,0x01,0x55,0x06,0x70,0x10,0x85,0xf8, // 2048
0x82,0x07,0xd3,0x02,0x3d,0x05,0xc4,0x08, 0x89,0x07,0x9d,0x01,0x9d,0x05,0xdb,0xfc, // 2064
0x5c,0xff,0xd8,0x10,0x80,0xfd,0x94,0x01, 0x4f,0x06,0xf7,0xfe,0x9a,0x06,0xa6,0xfc, // 2080
0xf7,0x0a,0xff,0xfd,0x28,0x07,0x37,0xf7, 0x3c,0xfc,0x8b,0x02,0xd3,0xfb,0x4b,0xf4, // 2096
0x72,0x06,0x9a,0x07,0x5c,0x08,0x6d,0x00, 0x63,0x06,0xc2,0x08,0x26,0x00,0x59,0xed, // 2112
0x13,0xf6,0x8d,0x03,0x61,0x04,0xbb,0x03, 0x3c,0xf6,0xb9,0x00,0x91,0x05,0x95,0xf9, // 2128
0xa1,0x04,0xcc,0xf4,0xb1,0x05,0xe4,0xf5, 0x67,0x03,0xf8,0x02,0x22,0x09,0x58,0xfd, // 2144
0x46,0xf3,0x83,0x09,0x27,0x03,0xd1,0x00, 0x20,0x07,0x82,0x04,0x43,0xff,0xe6,0xf5, // 2160
0xc2,0xfa,0x63,0xfd,0x34,0x0b,0x11,0xfe, 0xc7,0xfb,0x7f,0xfe,0xd0,0x08,0xe8,0x02, // 2176
0xd3,0x07,0x76,0xfc,0xa7,0xfc,0xdc,0xfc, 0x72,0x0d,0x75,0xef,0x3d,0xff,0xaf,0x07, // 2192
0x47,0x0b,0x7e,0xf8,0x1a,0x0b,0x63,0x08, 0xd0,0xfe,0xef,0x01,0xf5,0x04,0xfe,0xf4, // 2208
0x86,0xf8,0x85,0xf1,0x5c,0x0a,0x6f,0xf5, 0x2c,0x0e,0x9b,0xf6,0x76,0x01,0x63,0x03, // 2224
0xa2,0x00,0x37,0x09,0x5d,0xfe,0x18,0x09, 0x11,0xf9,0x45,0xfd,0xc4,0xf9,0xec,0xf1, // 2240
0xa8,0xfb,0x60,0xeb,0x8c,0xfb,0xf9,0x06, 0x62,0x01,0xb9,0xfe,0x43,0x00,0xcf,0xf2, // 2256
0x1b,0x04,0xf3,0xfb,0x76,0xf9,0x9e,0x03, 0x58,0xf3,0xe1,0x07,0xc4,0x02,0xd6,0x0b, // 2272
0xb6,0x03,0xa5,0x05,0xc2,0x0b,0xe0,0xf7, 0x5e,0xfc,0x37,0xfa,0x3c,0x05,0x83,0xf7, // 2288
0x90,0xfb,0x52,0x06,0x6e,0x08,0xad,0x09, 0x20,0xf5,0x71,0x07,0xeb,0x02,0x5c,0xf8, // 2304
0x3a,0xf4,0x8e,0xee,0x62,0xf8,0x01,0xf8, 0xc4,0x02,0x1e,0x01,0x03,0xfc,0x1b,0xf2, // 2320
0x58,0xee,0x2f,0xf3,0x29,0xf2,0xc9,0x04, 0x8e,0xec,0xf0,0xf4,0x28,0x01,0x84,0xf5, // 2336
0xba,0x09,0x44,0x0c,0x54,0xfd,0x9e,0xf5, 0x96,0xef,0x1a,0xff,0xee,0xec,0xfd,0xfa, // 2352
0x13,0x12,0x34,0x00,0x9e,0x00,0x20,0xec, 0xde,0xfa,0x02,0xf3,0x27,0xf9,0x6d,0xfa, // 2368
0x28,0xf1,0x58,0xef,0x0b,0x04,0xdc,0xfe, 0xca,0x00,0x3e,0xfa,0x39,0xf3,0xce,0xf3, // 2384
0xd0,0xfc,0x1d,0xf0,0x3b,0xed,0x6b,0xec, 0xdd,0xf8,0x8b,0xf6,0xc3,0x01,0x1a,0x01, // 2400
0x04,0x00,0x3c,0xf7,0x8a,0x02,0x65,0x06, 0xe5,0xf1,0x1e,0x00,0x11,0xf6,0xe1,0x02, // 2416
0x27,0x00,0x55,0xf6,0xdd,0xf5,0xf1,0xfb, 0x9c,0xff,0x56,0xef,0x44,0xf3,0x64,0xf5, // 2432
0x7c,0x0b,0x6e,0xeb,0x77,0xf2,0x61,0xed, 0x1f,0xeb,0x76,0xfb,0x9c,0xf6,0x56,0xfc, // 2448
0x56,0xfa,0x4f,0xf8,0x2f,0x04,0x44,0xfa, 0xcb,0xfc,0x03,0x02,0xa6,0x0d,0x9a,0xed, // 2464
0x5d,0xf3,0x3c,0x03,0x1d,0xee,0xcd,0xfd, 0x35,0x03,0xa4,0x00,0xdb,0xfe,0x79,0xf8, // 2480
0x70,0x01,0x0e,0xff,0x06,0xfa,0x3f,0x02, 0x64,0x06,0x9c,0x03,0x86,0xfb,0xa8,0xf8, // 2496
0xae,0xf6,0xc6,0xfb,0xe9,0xf7,0xbe,0xf3, 0xc1,0x03,0x5e,0xf7,0xd0,0xfb,0xa4,0x01, // 2512
0x10,0x03,0xd4,0xff,0x18,0xf3,0x4d,0xf4, 0xbb,0xf6,0x74,0x02,0xe3,0x03,0x67,0xfa, // 2528
0x4f,0xeb,0x69,0x06,0x90,0x01,0x34,0xf8, 0x55,0xfe,0xb1,0xfe,0x24,0x00,0xb3,0x0e, // 2544
0xe9,0xfe,0xcd,0xf1,0xf8,0xfa,0x4a,0x01, 0xae,0x00,0xfd,0xf1,0xdc,0x02,0x56,0xed, // 2560
0x05,0x04,0x47,0xfd,0x48,0x00,0xda,0xff, 0x17,0xfb,0x29,0xf5,0x58,0xf9,0x22,0x07, // 2576
0x43,0x4d,0x44,0x00,0x20,0x03,0x80,0x00, 0x10,0x0a,0x00,0x00,0x10,0x12,0x00,0x00, // 2592
0x01,0x01,0x00,0x00,0x0a,0x00,0x00,0x00, 0x00,0x00,0x00,0x00,0x00,0x00,0x00,0x00, // 2608
0x01,0x00,0x8c,0x00,0x01,0x00,0x01,0x00, 0x8c,0x00,0x01,0x00,0x00,0x00,0x00,0x00, // 2624
0x0a,0x00,0xff,0xff,0xff,0xff,0xff,0xff, 0x00,0x00,0x00,0x00,0x00,0x00,0x00,0x00, // 2640
0x00,0x00,0x00,0x00,0x00,0x00,0x00,0x00, 0x00,0x00,0x00,0x00,0x00,0x00,0x00,0x00, // 2656
0x00,0x00,0x00,0x00,0x00,0x00,0x00,0x00, 0x00,0x00,0x00,0x00,0x00,0x00,0x00,0x00, // 2672
0x00,0x00,0x00,0x00,0x00,0x00,0x00,0x00, 0x00,0x00,0x00,0x00,0x00,0x00,0x00,0x00, // 2688
0x00,0x00,0x00,0x00,0x00,0x00,0x00,0x00, 0x00,0x00,0x00,0x00,0x00,0x00,0x00,0x00, // 2704
0x43,0x4d,0x44,0x00,0x20,0x05,0x00,0x00, 0x90,0x0a,0x00,0x00,0x10,0x02,0x00,0x00, // 2720
0x01,0x00,0x00,0x04,0x0a,0x0b,0x07,0x0b, 0x00,0x00,0x00,0x00,0x00,0x00,0x00,0x00, // 2736
0x01,0x00,0x8c,0x00,0x01,0x00,0x01,0x00, 0x64,0x00,0x01,0x00,0x00,0x00,0x00,0x00, // 2752
0x0a,0x00,0xff,0xff,0xff,0xff,0xff,0xff, 0x00,0x00,0x01,0x00,0xc8,0x00,0x00,0x00, // 2768
0x00,0x01,0x02,0x00,0x18,0x01,0x00,0x00, 0x00,0x00,0x00,0x00,0x00,0x00,0x00,0x00, // 2784
0x00,0x00,0x00,0x00,0x00,0x00,0x00,0x00, 0x00,0x00,0x00,0x00,0x00,0x00,0x00,0x00, // 2800
0x00,0x00,0x00,0x00,0x00,0x00,0x00,0x00, 0x00,0x00,0x00,0x00,0x00,0x00,0x00,0x00, // 2816
0x00,0x00,0x00,0x00,0x00,0x00,0x00,0x00, 0x60,0x6d,0x00,0x00,0xc8,0x00,0x00,0x00, // 2832
0xc8,0xfe,0x7b,0xfe,0xaf,0x00,0x16,0x00, 0xfb,0xff,0x79,0xfe,0xb4,0xfe,0x0a,0x01, // 2848
0xf9,0x01,0x86,0xff,0xd7,0xfe,0xaf,0xfb, 0x57,0x01,0x6a,0xfe,0x1c,0x01,0xa7,0x00, // 2864
0x1e,0xfb,0x10,0x01,0x60,0xff,0x4a,0x02, 0x7f,0xff,0x5d,0xfe,0x6f,0x01,0x53,0x01, // 2880
0x1e,0xff,0x1b,0xfe,0xc6,0xff,0xaa,0xff, 0x05,0x00,0x4f,0x02,0x31,0xfe,0x78,0xfd, // 2896
0x42,0x00,0x99,0xff,0xb8,0x01,0xec,0x00, 0x66,0x02,0xe7,0xfa,0x8e,0x01,0xc1,0xfe, // 2912
0x5d,0x00,0xfe,0x00,0xe3,0xfe,0xa5,0x02, 0xe8,0xff,0xc3,0xf9,0xad,0x00,0x77,0x01, // 2928
0x29,0x00,0x9a,0x00,0x0b,0x02,0xf1,0x01, 0xda,0xff,0x47,0xfe,0x50,0x01,0x29,0xfe, // 2944
0xf3,0x00,0x07,0xfc,0x14,0x00,0x85,0x01, 0xe5,0xff,0xd7,0xfd,0x99,0xfc,0x20,0x00, // 2960
0xd9,0x02,0x04,0x00,0xdb,0xf2,0x1a,0xf8, 0x86,0x00,0x3a,0xfe,0x0f,0x00,0x33,0xfd, // 2976
0x5a,0x01,0x8f,0xff,0x14,0xfe,0x10,0xff, 0x21,0xff,0x8b,0xfa,0x23,0x01,0x27,0xff, // 2992
0xe2,0xff,0xfe,0xff,0x41,0xff,0xb4,0xff, 0x77,0x03,0xd6,0xff,0xb9,0x00,0xa5,0x03, // 3008
0x38,0xff,0xc4,0x01,0xd3,0x00,0xb1,0x00, 0xcd,0x01,0x5b,0x02,0xa4,0x01,0x02,0x00, // 3024
0xe1,0xff,0x68,0x01,0x05,0x00,0xb6,0x00, 0x7b,0x02,0x51,0x01,0x1e,0x03,0xf4,0xff, // 3040
0x3a,0xfc,0x12,0x00,0x23,0x00,0xbb,0x00, 0xa9,0xfe,0xff,0xfd,0xd3,0xfe,0xa8,0xfe, // 3056
0x39,0xff,0x75,0xfe,0x65,0x00,0x85,0x00, 0x0a,0x00,0x33,0xff,0x2c,0x03,0x5c,0xfe, // 3072
0x4e,0xff,0xa6,0x00,0x4d,0xfe,0xc2,0xff, 0xee,0xfd,0x6f,0xfc,0x45,0xfe,0x6b,0xfb, // 3088
0xcf,0x00,0x16,0x01,0x45,0xff,0x2b,0xfd, 0x0b,0x00,0x2e,0xfd,0xc8,0x00,0xa7,0x00, // 3104
0x08,0x01,0xc3,0xfe,0xb5,0xfe,0x6a,0x00, 0x0a,0x03,0xf7,0xff,0x3c,0xfe,0x89,0x03, // 3120
0xf8,0x01,0x32,0xff,0xb4,0xf6,0x80,0x01, 0xd8,0xfe,0x76,0x02,0x02,0xfe,0x15,0x00, // 3136
0xbd,0xfd,0x46,0x02,0xd6,0x00,0x83,0x00, 0xa6,0x00,0x56,0xff,0x67,0xff,0xee,0x01, // 3152
0xa2,0xfe,0x52,0xff,0x6b,0xff,0xb8,0xff, 0xf6,0xfc,0x3f,0x01,0xcb,0x01,0x77,0x00, // 3168
0xd5,0xfe,0xef,0xff,0x2e,0x01,0x93,0x03, 0x07,0xfd,0x46,0xfd,0x25,0xff,0x18,0xff, // 3184
0x22,0xfe,0x6f,0x00,0x96,0xfe,0x46,0x00, 0xd0,0xfe,0xdd,0x00,0x8b,0xfd,0x68,0x00, // 3200
0x57,0xf7,0x4e,0x03,0xa7,0x00,0x08,0x00, 0xd1,0x01,0x88,0x01,0xea,0x02,0xb6,0xff, // 3216
0xa1,0xfe,0xa9,0xf9,0x1e,0xff,0x37,0x03, 0xb0,0xfc,0x1a,0x03,0xe3,0x03,0x2e,0xfd, // 3232
0x98,0x02,0xfe,0xfd,0x41,0xfe,0x01,0xff, 0xee,0xfe,0xfb,0x02,0x30,0x00,0x2c,0xfd, // 3248
0x0b,0xfd,0xce,0xfc,0x57,0x00,0x85,0xfe, 0x73,0x05,0xf3,0x01,0xb5,0xfe,0x6b,0x00, // 3264
0x47,0x00,0x0a,0x01,0x12,0xfc,0x8f,0xfe, 0xae,0xff,0x0f,0xff,0x03,0xfb,0x51,0x00, // 3280
0x8f,0xfc,0x23,0xff,0x65,0x00,0xda,0xfe, 0xe8,0xff,0x68,0xfc,0x59,0xfe,0xf8,0xfa, // 3296
0x12,0xff,0x74,0xfe,0x05,0x04,0xef,0xff, 0xeb,0xff,0x4d,0x00,0xf1,0x01,0x3e,0x00, // 3312
0xa6,0x00,0xfa,0xff,0xcc,0x00,0xfa,0x00, 0x6c,0xfd,0xa9,0xff,0xbb,0x02,0x69,0xff, // 3328
0x87,0xff,0x81,0x02,0xa2,0xfe,0xc1,0x00, 0x45,0x01,0x5d,0xfd,0x94,0x00,0xe0,0x00, // 3344
0x91,0x01,0x38,0xff,0xff,0x00,0xa6,0x02, 0x42,0xfe,0x33,0xfb,0x8a,0xff,0x3a,0x01, // 3360
0xaf,0x00,0xed,0xfe,0x94,0xff,0x22,0xfd, 0x5e,0xff,0x0a,0xfe,0xc8,0x00,0x2f,0x02, // 3376
0xcb,0xfa,0x7d,0xfd,0x69,0xfc,0x66,0x00, 0x95,0x00,0x27,0x01,0x71,0x02,0xa1,0x01, // 3392
0xea,0x00,0x68,0x00,0xdf,0x00,0x2d,0xfe, 0xf0,0x01,0x06,0x01,0xcd,0x05,0x16,0xff, // 3408
0x9b,0x02,0xdf,0xfe,0x55,0xfe,0xd2,0x00, 0x5f,0xff,0x42,0x00,0x8b,0x01,0x1f,0x00, // 3424
0x8c,0xff,0xf5,0xfb,0x42,0x01,0x87,0xfc, 0xe7,0xfe,0xce,0x00,0x15,0xff,0xd4,0x00, // 3440
0x35,0xff,0xcc,0x01,0x93,0x00,0xab,0x00, 0xff,0xfe,0xc5,0x02,0x36,0x01,0x42,0x01, // 3456
0x32,0xfd,0xfc,0x02,0xf5,0x01,0x86,0x01, 0x32,0xff,0xe5,0xff,0x25,0x02,0x1d,0x01, // 3472
0x55,0xfc,0x61,0xff,0x19,0x04,0xe3,0x00, 0x99,0xff,0x9f,0xff,0x66,0xfe,0x98,0xff, // 3488
0xf9,0xff,0xe6,0xff,0x36,0xff,0xa5,0xfe, 0x17,0x00,0xf3,0x00,0x10,0xfd,0x22,0xfe, // 3504
0x0e,0x01,0x3f,0xff,0xa2,0x00,0x4b,0xfd, 0x5b,0x01,0x56,0x01,0x34,0xff,0xa8,0x01, // 3520
0x65,0x00,0x9e,0xfe,0x9c,0x00,0x51,0x00, 0x84,0xfd,0x5b,0x01,0xad,0xff,0xbf,0x01, // 3536
0x32,0x00,0x10,0xfe,0x3c,0x01,0xfb,0xfc, 0xb3,0xfe,0xfa,0xff,0x4a,0xf9,0xb6,0x00, // 3552
0x9b,0xff,0x34,0x00,0xa4,0x00,0x34,0xfe, 0xf3,0x00,0xd0,0x00,0x02,0x01,0x95,0xff, // 3568
0x11,0x00,0x2c,0xfe,0xd6,0xfb,0x42,0xff, 0xc9,0x01,0x8f,0xfb,0x13,0x00,0x64,0xff, // 3584
0x33,0x00,0x7f,0xfd,0x6a,0x02,0x51,0xff, 0x06,0xff,0x4a,0xfe,0xab,0xfe,0x24,0xff, // 3600
0x7e,0xff,0xc8,0x00,0xfb,0xff,0x61,0x01, 0x25,0x00,0x35,0x01,0x03,0x01,0x67,0x01, // 3616
0x6e,0x00,0xe6,0xfb,0x0a,0x01,0xc2,0xfd, 0xf7,0xfe,0x88,0xff,0xcd,0xfd,0xd4,0xfd, // 3632
0xa0,0x02,0xf6,0xfd,0xfb,0xff,0x9f,0xff, 0xc0,0xfe,0x05,0x00,0xe3,0xfc,0x32,0x01, // 3648
0x5a,0x02,0x96,0xff,0xe4,0xff,0xad,0x00, 0xa0,0xff,0xc1,0xff,0xf4,0xff,0x74,0xff, // 3664
0xed,0x01,0x69,0xf6,0x3c,0xff,0x3a,0xff, 0x90,0xfd,0xb3,0xff,0x73,0xfd,0x7d,0xfe, // 3680
0x43,0x01,0x16,0x01,0xc2,0xfe,0x1e,0xfc, 0x22,0xff,0x64,0x00,0x1e,0x00,0xfa,0xfd, // 3696
0xdb,0xfe,0x1e,0x00,0x8a,0xfe,0x06,0x00, 0x7d,0x00,0xea,0x01,0x61,0x00,0xc3,0xff, // 3712
0xe3,0x00,0x20,0x00,0x2a,0x00,0x09,0x00, 0x0f,0x02,0xd6,0x00,0xb3,0xfd,0x81,0xfe, // 3728
0x3e,0x00,0xe0,0xfe,0xb5,0x00,0x61,0x00, 0x02,0x02,0x89,0xfe,0x4f,0xfb,0x60,0xfd, // 3744
0xe8,0xfa,0x76,0x01,0xce,0xfc,0x56,0x00, 0x7c,0x00,0x3c,0x01,0x32,0xff,0xbb,0xfd, // 3760
0x1a,0xfd,0x6e,0xff,0x9d,0x00,0x40,0xfc, 0x42,0xfc,0x66,0x01,0xcb,0xfd,0x43,0xfa, // 3776
0x29,0x02,0xfc,0xfd,0x64,0x01,0xf8,0x01, 0xc6,0x02,0x32,0xff,0x54,0xfd,0x5d,0xfd, // 3792
0xae,0x01,0x0c,0xff,0x89,0x00,0xb3,0xfe, 0xb7,0xfe,0x7c,0xfd,0xf6,0xff,0xca,0xff, // 3808
0xe7,0xfe,0xbe,0x00,0x07,0x03,0x68,0x00, 0x54,0xfb,0xac,0xfe,0xfa,0xfc,0x34,0x00, // 3824
0x76,0xfe,0xb3,0xfd,0x2c,0x04,0xb3,0xff, 0x5a,0xfe,0x1a,0xfe,0x0f,0xfd,0xdd,0x00, // 3840
0xe1,0xfd,0x61,0x01,0xf3,0x01,0x65,0x00, 0x58,0xff,0xef,0x00,0x05,0x02,0xef,0xf9, // 3856
0x42,0x00,0x47,0xfb,0x07,0xfd,0x9b,0x00, 0xc7,0xff,0x83,0x01,0xc1,0x01,0x9c,0x02, // 3872
0xf7,0x00,0x72,0x02,0xd6,0xfe,0x06,0x01, 0x1a,0xff,0x98,0xfe,0xc4,0xf4,0x67,0x02, // 3888
0x6a,0xfe,0x3e,0xff,0x4b,0x01,0xae,0x01, 0xda,0xfc,0x2b,0x00,0x03,0xff,0xcf,0xff, // 3904
0xca,0xff,0x2a,0x00,0x68,0x01,0x94,0x00, 0xed,0x01,0x0c,0xfa,0xef,0x01,0x1f,0x02, // 3920
0x57,0xfe,0x5e,0xff,0xfd,0x00,0x14,0x00, 0x9a,0xfd,0x1d,0xfe,0xe4,0xff,0xbb,0xff, // 3936
0x1f,0x01,0xbe,0x00,0xfe,0xff,0x93,0x00, 0xe5,0xfd,0xa4,0xfe,0x1d,0x00,0x23,0xf7, // 3952
0x44,0xff,0x26,0xff,0x6d,0xff,0xe6,0xfe, 0xff,0x00,0x73,0x01,0xbe,0xf8,0xc7,0x01, // 3968
0x31,0x02,0x0e,0xff,0xf8,0x00,0x15,0x00, 0xab,0x01,0x99,0x00,0x24,0x02,0x12,0x00, // 3984
0x9d,0x01,0x54,0xff,0x45,0x00,0x4a,0x03, 0xd2,0xfe,0x92,0xff,0xd4,0x00,0xa2,0xff, // 4000
0x7b,0xff,0x43,0xff,0xc6,0x01,0xcc,0xff, 0xd0,0xfd,0xbe,0xff,0x19,0xff,0x88,0x00, // 4016
0x87,0xfe,0x77,0xff,0xc7,0x01,0x17,0x00, 0xb8,0xfe,0xe1,0x02,0x9c,0x00,0xe8,0xfd, // 4032
0xb3,0x02,0xbe,0x01,0x71,0xff,0xf6,0x00, 0x07,0x00,0x1f,0x02,0x56,0x00,0x5a,0x00, // 4048
0x70,0x00,0xf7,0xfd,0x9b,0x00,0x0c,0x01, 0xd1,0x01,0x5a,0xfb,0x53,0x01,0xbe,0x00, // 4064
0x5e,0x00,0xcf,0xff,0x53,0xfe,0x7d,0xff, 0xcd,0xff,0xb2,0xff,0x60,0x01,0xb5,0xff, // 4080
0x49,0x01,0xb1,0x02,0x3a,0x01,0x2b,0x00, 0x2f,0xff,0xeb,0xfd,0x98,0x00,0x41,0x00, // 4096
0x50,0x00,0xf0,0xfd,0x84,0x00,0x8f,0x01, 0xb8,0x00,0x2f,0xff,0xd0,0xfd,0x73,0x01, // 4112
0x89,0x01,0xa4,0x00,0xc0,0x00,0xa1,0xfe, 0xf4,0xfe,0x13,0x02,0xe1,0x02,0xb8,0x00, // 4128
0x5c,0xfe,0xe2,0xfd,0xff,0x00,0x3e,0x01, 0x09,0x00,0x11,0x03,0x61,0x00,0xdc,0xff, // 4144
0xfb,0xff,0x14,0xfe,0x85,0xff,0xc2,0x03, 0xe5,0x00,0xba,0x01,0x89,0x02,0x66,0x01, // 4160
0x63,0xfe,0x14,0xff,0xa1,0x00,0x61,0xff, 0x80,0xff,0x57,0xff,0x15,0x02,0x7d,0xff, // 4176
0x57,0x00,0x99,0xff,0x47,0xff,0x3a,0xff, 0x4d,0x02,0x7b,0xff,0x66,0x02,0x14,0x01, // 4192
0xc9,0xfd,0x66,0x00,0xd9,0x01,0x0f,0xff, 0x22,0x00,0x57,0xfe,0x79,0x01,0xbc,0xff, // 4208
0xf2,0x01,0x52,0xff,0xd6,0xfe,0xc4,0x02, 0xe5,0xfe,0x53,0x02,0x28,0xff,0x02,0xfe, // 4224
0x91,0x02,0xdf,0xff,0x7c,0x00,0x7e,0xff, 0x55,0xfb,0xa4,0xfe,0x9e,0xfc,0x77,0xfe, // 4240
0x30,0xfe,0x64,0x01,0xd1,0x00,0xb5,0xff, 0x58,0xfd,0xb3,0xff,0x57,0xfe,0x91,0xff, // 4256
0x5b,0xff,0x11,0x00,0xcb,0xff,0xf9,0x00, 0x84,0x01,0xe1,0x02,0x61,0x00,0x78,0x01, // 4272
0x42,0xfd,0x12,0xff,0xa7,0xff,0x25,0x01, 0x63,0x00,0x69,0xff,0x9e,0x00,0x62,0xff, // 4288
0x83,0xfd,0xc6,0x00,0xcb,0xff,0x53,0x00, 0xde,0x01,0xfe,0xff,0xac,0x00,0x0d,0x02, // 4304
0xbb,0x00,0x62,0x00,0x0b,0x01,0x26,0x00, 0x8d,0x01,0xb1,0xfe,0xd3,0xff,0x71,0x02, // 4320
0xc3,0xfe,0xb1,0x00,0x15,0x03,0xf5,0xff, 0x68,0x02,0xf0,0x01,0x94,0xfc,0x97,0xfe, // 4336
0xb0,0x01,0xcf,0xff,0x94,0xff,0xd5,0x01, 0xcd,0x01,0x89,0xff,0xae,0xfe,0x0c,0x00, // 4352
0x1b,0x00,0x18,0xff,0xd3,0xff,0xf1,0xff, 0xcc,0xff,0x4c,0x00,0x96,0xff,0x79,0x00, // 4368
0xa1,0x00,0x67,0x00,0x73,0x00,0xa5,0x00, 0x52,0xfe,0x8d,0xfd,0x78,0xff,0x8d,0x00, // 4384
0x74,0x01,0xcf,0xfe,0xc1,0xff,0x78,0x00, 0x48,0x01,0x37,0x00,0x73,0xfe,0x56,0x00, // 4400
0xed,0xff,0xe7,0xfe,0x27,0x01,0x25,0x02, 0x9a,0xfd,0x99,0xff,0xc1,0x00,0x30,0xff, // 4416
0x30,0x02,0xd8,0xfe,0xc8,0xff,0x82,0xfe, 0xc6,0xff,0xa8,0xff,0x95,0xfd,0xf9,0x01, // 4432
0xa3,0x00,0x4d,0x00,0x36,0xff,0xd2,0x01, 0x24,0xfd,0x3f,0xfa,0x99,0xfe,0x0d,0x02, // 4448
0xef,0xfc,0x38,0xff,0xcc,0x01,0x62,0x01, 0xb6,0xff,0x36,0x00,0x29,0xfe,0x96,0xfd, // 4464
0xe6,0x01,0x5e,0x02,0xf5,0xfe,0xb8,0x02, 0xb9,0xfc,0xd3,0x00,0x83,0x00,0x60,0xff, // 4480
0x6f,0xff,0x58,0x00,0x76,0x00,0x79,0xfc, 0x3a,0xfe,0x38,0x00,0xa6,0x02,0xd1,0xff, // 4496
0x3a,0x00,0xbf,0xfe,0x37,0xff,0x62,0x02, 0xad,0x01,0x53,0x02,0xac,0xff,0x39,0xfe, // 4512
0xc4,0x00,0xf7,0xff,0x40,0x00,0xb8,0x01, 0x6a,0xff,0x06,0x02,0x6e,0x02,0xf0,0x04, // 4528
0x1c,0x00,0xd8,0xfe,0x8a,0x01,0x33,0xfd, 0xfc,0x01,0x46,0x01,0x3d,0x00,0x08,0x01, // 4544
0x68,0x00,0xba,0xfc,0xed,0x01,0xd5,0xfa, 0x1a,0xff,0x54,0xff,0x11,0xff,0xee,0x01, // 4560
0x6d,0xf8,0xfc,0xff,0xc2,0x03,0xaa,0x00, 0x56,0xff,0xc8,0x01,0x73,0x00,0xf6,0xfd, // 4576
0xfe,0xfd,0x7c,0xfe,0x2e,0xff,0xb0,0x01, 0x50,0xff,0xf6,0x02,0xbe,0xfd,0x07,0x00, // 4592
0x41,0xff,0x99,0x00,0xa8,0xfe,0xa1,0x01, 0x19,0x01,0x13,0x01,0xc8,0x01,0x9c,0xfc, // 4608
0x79,0xff,0xe8,0x00,0x2a,0x02,0xf8,0x00, 0x56,0x00,0x2d,0x01,0x47,0x00,0x8c,0x01, // 4624
0xf7,0x01,0xec,0xff,0xd9,0x01,0x82,0x02, 0x5e,0xfe,0x03,0x02,0x2f,0xff,0x09,0x00, // 4640
0xec,0xff,0xdc,0xfc,0xe0,0xf9,0x44,0x01, 0xb7,0x00,0x59,0x02,0x51,0xfd,0x24,0x00, // 4656
0xe8,0x02,0xf1,0x00,0x88,0x01,0x0a,0x01, 0xfc,0xfe,0x29,0xfe,0xc9,0x00,0xad,0x00, // 4672
0x73,0x00,0xda,0x00,0x09,0x01,0xc9,0x02, 0x7e,0x02,0x39,0xff,0xe2,0x02,0x8f,0xff, // 4688
0xa6,0xff,0xc9,0x01,0x9f,0x00,0xbc,0x00, 0x58,0x01,0xb9,0x01,0xdd,0xfa,0xb3,0xfc, // 4704
0x1b,0x00,0x5d,0x01,0x9d,0x06,0xc1,0x00, 0x32,0x00,0x09,0x02,0xb4,0xfe,0xe5,0xfd, // 4720
0xbb,0x02,0x1b,0x00,0xe5,0xfe,0xdb,0xff, 0x30,0x01,0x25,0x01,0x5e,0x01,0xa0,0x01, // 4736
0xcd,0x00,0x33,0x00,0xc7,0x01,0x3d,0xff, 0xc2,0xfe,0xe9,0x00,0x66,0x02,0xfb,0x05, // 4752
0xd1,0xff,0x5f,0x00,0x83,0x00,0x93,0xff, 0x7f,0x00,0x08,0x01,0xad,0x02,0xf1,0xfd, // 4768
0x32,0xfe,0xe9,0xfd,0xce,0x00,0x7d,0x02, 0x9e,0x01,0xc9,0xff,0x55,0xff,0x5a,0xff, // 4784
0x4e,0x00,0x80,0xfd,0x51,0x00,0xa4,0x01, 0x7a,0xff,0x62,0xfd,0xf4,0xff,0x34,0xff, // 4800
0x0c,0x01,0x20,0xfb,0xa0,0x00,0x52,0x02, 0xd9,0x02,0xcb,0xfc,0xb1,0x00,0x4c,0xfd, // 4816
0xc1,0xfd,0x8f,0xf9,0x92,0x00,0xe5,0xff, 0x22,0xfe,0x9c,0x00,0x4d,0x01,0xe7,0x01, // 4832
0xc6,0x01,0xe4,0xff,0x96,0x01,0xe9,0x00, 0x5d,0xfd,0xb7,0xfe,0xed,0xfc,0x62,0xff, // 4848
0xbb,0xfe,0xc2,0xfe,0x1c,0x01,0x35,0xfc, 0xf2,0xff,0x9f,0xff,0xb4,0x00,0xaa,0x00, // 4864
0x25,0x00,0xde,0xff,0xe6,0x04,0xff,0xff, 0x87,0xff,0xc9,0xfc,0x9b,0x00,0x42,0x00, // 4880
0xfa,0xfe,0xa8,0xff,0x2f,0xff,0x1a,0x00, 0x30,0x00,0x5b,0xff,0x64,0x01,0xc5,0x00, // 4896
0x3d,0x01,0xbc,0xfe,0xd7,0x01,0xc7,0xfb, 0x71,0x00,0x9d,0xf9,0x5b,0xfe,0xbe,0x02, // 4912
0x68,0x00,0xae,0x00,0x6e,0x00,0xec,0x00, 0xa4,0x00,0xb8,0xfd,0xd8,0xff,0x2b,0xfe, // 4928
0x9c,0x00,0x70,0xff,0x27,0x00,0xa7,0xfc, 0x93,0xfe,0x0c,0x00,0x08,0xfe,0x90,0x00, // 4944
0x36,0x01,0x9c,0xff,0x5a,0xfe,0xfb,0xff, 0x19,0x01,0xb6,0x00,0x5b,0x00,0x8a,0xff, // 4960
0x27,0xfd,0xa4,0x01,0x80,0xfd,0x13,0xff, 0x62,0x00,0x46,0x01,0x19,0x01,0xc4,0x00, // 4976
0x35,0xff,0x7e,0xfe,0x99,0x00,0xcf,0xff, 0x7e,0xff,0x64,0x01,0x80,0xfe,0x16,0x01, // 4992
0xab,0xfc,0x4a,0xfe,0x74,0xfc,0x8b,0xff, 0x8e,0x03,0xc0,0x00,0x51,0x00,0xed,0xff, // 5008
0xa5,0xfe,0x4a,0x00,0xe5,0xff,0x59,0xfc, 0xf3,0xfe,0x22,0x00,0x0f,0x00,0x0c,0x01, // 5024
0xe6,0xfe,0x7e,0x00,0x2c,0xfc,0x37,0x01, 0x77,0x00,0xa1,0x00,0x31,0xff,0x36,0xff, // 5040
0xea,0xfd,0x1e,0x02,0xd8,0xfa,0xb8,0xff, 0x77,0x00,0x3f,0xff,0xde,0xfd,0xc4,0xfc, // 5056
0x92,0x00,0x83,0x00,0x44,0xff,0x1e,0x01, 0x35,0x00,0xaa,0xff,0x1f,0xff,0x91,0x00, // 5072
0x4d,0x01,0x9a,0xfe,0x6e,0x00,0x8b,0x02, 0x35,0x00,0x69,0x01,0xf4,0xff,0x34,0x03, // 5088
0xa0,0xfe,0xc3,0xfe,0xf5,0x01,0xe2,0x01, 0x2c,0x01,0xb5,0xfe,0x66,0x01,0x5e,0x00, // 5104
0x56,0x00,0x20,0x00,0x04,0xff,0x30,0x02, 0xa8,0x01,0xfa,0xfe,0x99,0xff,0x85,0x01, // 5120
0x35,0x00,0xbc,0x00,0x01,0x02,0xbd,0xff, 0x34,0xfc,0xd9,0xff,0x3f,0x01,0x59,0x00, // 5136
0xc6,0x00,0xc7,0x00,0xad,0xfe,0xf1,0x00, 0x00,0x02,0x09,0x00,0x69,0xff,0xee,0xfc, // 5152
0x08,0xfc,0x59,0xfe,0x69,0x00,0x39,0x02, 0xb1,0x00,0xc8,0x02,0xd2,0xff,0x23,0x02, // 5168
0x1c,0x00,0x3c,0xff,0x88,0x01,0x66,0x00, 0x8a,0xff,0x65,0x04,0x4d,0xfc,0x4d,0xf4, // 5184
0x51,0xff,0x88,0xfd,0x5d,0xfd,0x37,0xf9, 0x91,0x00,0x45,0x01,0xf1,0xff,0x18,0x00, // 5200
0x07,0x00,0x75,0xfe,0xf3,0x00,0x3c,0x00, 0xea,0xff,0x5b,0x01,0x8c,0x01,0xc0,0xfd, // 5216
0xcd,0x00,0x80,0x01,0x09,0x02,0xe7,0xff, 0x93,0x00,0x71,0x01,0x4b,0x00,0x8c,0x00, // 5232
0xca,0x00,0x1b,0xfe,0xa4,0xff,0x8e,0x01, 0xa3,0x01,0xc7,0xfc,0x67,0xff,0x7c,0xfe, // 5248
0x59,0x00,0x3a,0xff,0xc6,0x01,0x3f,0xfe, 0x4d,0xff,0x30,0x00,0x13,0x01,0x37,0xff, // 5264
0x08,0xff,0x5f,0xfe,0x08,0xff,0xda,0xff, 0xdb,0x00,0x6b,0xfc,0x40,0x01,0xe1,0x00, // 5280
0x06,0x02,0xf7,0x01,0x1d,0x01,0x53,0xfe, 0x2c,0x01,0xb8,0xff,0x03,0x01,0x48,0x00, // 5296
0xdf,0x00,0x0d,0xff,0xda,0x00,0x1b,0x00, 0x80,0x00,0xf8,0xff,0xc7,0xfa,0xb1,0xff, // 5312
0x7c,0xff,0x62,0xfe,0x44,0xfe,0xc9,0xff, 0x17,0xfe,0x4d,0x01,0xba,0xfd,0x66,0x01, // 5328
0xf0,0xfe,0xa7,0x00,0x7d,0x02,0x2c,0x00, 0x1c,0x02,0xec,0xfc,0xb3,0x00,0xe5,0xfd, // 5344
0xc1,0xff,0x2a,0x01,0x97,0xfd,0x20,0x02, 0xe2,0xfe,0x82,0xfc,0x97,0xff,0x24,0x01, // 5360
0x4a,0x00,0x6d,0x00,0x57,0xfd,0x1f,0x00, 0x5b,0x00,0x10,0xff,0x7a,0xff,0x12,0x01, // 5376
0x50,0xff,0xc0,0xfb,0x85,0x01,0xfb,0xfb, 0x25,0xfe,0x7c,0xff,0xb3,0xfd,0x03,0xff, // 5392
0xec,0xfd,0x74,0x00,0x93,0xff,0x0f,0x00, 0x3e,0x02,0xfc,0xff,0xdf,0x01,0x7a,0xfb, // 5408
0x11,0xfe,0x30,0x01,0x70,0xfe,0x6e,0x02, 0x8d,0x00,0xb6,0xff,0x36,0x00,0x33,0x00, // 5424
0x55,0xf8,0x91,0x00,0x27,0x00,0x0c,0xff, 0xdd,0xfc,0xaf,0xff,0x24,0xff,0xdf,0xff, // 5440
0xcc,0x01,0xfd,0xfc,0x07,0x00,0x59,0x01, 0x8f,0xfd,0x40,0x03,0x49,0x01,0x26,0x00, // 5456
0xec,0x00,0xb5,0x01,0xa3,0xfd,0x37,0xf8, 0x41,0x01,0x8f,0xf9,0x38,0x00,0x67,0xfd, // 5472
0x93,0xfd,0xcb,0x02,0x9c,0x00,0x3b,0xff, 0x9f,0xff,0x84,0xff,0x71,0x02,0x34,0xfe, // 5488
0xc4,0x00,0x26,0x02,0xb7,0xf7,0x2f,0x00, 0x0d,0xfe,0xaf,0xfd,0x70,0x00,0x1d,0xfd, // 5504
0xd5,0xfb,0x09,0xff,0x0a,0x00,0xf8,0xfd, 0x4d,0xf9,0x1e,0xfa,0xd6,0xfc,0x4a,0x00, // 5520
0x73,0x01,0xb4,0xfd,0x54,0x01,0xe9,0x01, 0xcb,0xfb,0x9b,0x01,0xae,0xff,0x73,0xff, // 5536
0x1d,0xff,0x57,0x02,0xf2,0xfc,0x4c,0xfe, 0x6e,0x00,0x03,0xff,0xbe,0xfd,0xf5,0xff, // 5552
0xc4,0xff,0x91,0xfe,0x9d,0xfe,0x5a,0x00, 0x6e,0xfe,0x0a,0xff,0xe3,0x00,0xb8,0xfc, // 5568
0xc9,0xfd,0x32,0x00,0x89,0x00,0x0a,0x01, 0x5d,0x02,0xff,0xff,0xfa,0xff,0xfa,0xfd, // 5584
0xb8,0xfe,0xd1,0xff,0x3a,0xfa,0xf9,0xfa, 0x0b,0xfd,0x93,0xfc,0x01,0xfc,0xee,0xff, // 5600
0xe9,0xfa,0xd0,0x00,0x17,0xfd,0x19,0xff, 0xc0,0xff,0x67,0xff,0x8a,0xfe,0xd6,0xff, // 5616
0x5c,0x00,0xe5,0xfb,0x6b,0x01,0xf2,0xfe, 0xe4,0xff,0x3f,0xff,0xfc,0xfa,0x8f,0x00, // 5632
0xa6,0x01,0xbe,0xff,0x57,0x00,0xae,0xfe, 0x97,0x01,0xf2,0xfe,0x83,0x02,0x54,0x01, // 5648
0x5d,0xfd,0xb0,0x02,0xc4,0xff,0x98,0x01, 0x2a,0x00,0x82,0xfe,0x8c,0x00,0xd0,0xff, // 5664
0x74,0x01,0xe2,0xfe,0x4d,0x01,0xd9,0x02, 0xb3,0x00,0xcb,0xfd,0xcd,0x00,0xd6,0xff, // 5680
0xbf,0x00,0x3c,0x01,0x37,0x01,0x07,0x00, 0x64,0xfd,0x91,0xfe,0xcd,0x00,0x23,0xfd, // 5696
0xa4,0xfd,0x34,0x00,0x24,0x01,0x23,0x01, 0x5a,0x00,0x5c,0x01,0x72,0xff,0x1b,0x01, // 5712
0x59,0xfb,0xb9,0x01,0x4c,0x00,0x28,0x01, 0x43,0xfe,0x48,0x01,0x1d,0x02,0x0d,0x01, // 5728
0x31,0x00,0xe5,0x00,0x59,0x02,0xcc,0xff, 0x09,0x00,0x4d,0xff,0xe6,0xfc,0x36,0xfe, // 5744
0x79,0x00,0x55,0xfe,0x7e,0x00,0x38,0x01, 0x6e,0x00,0x7d,0x01,0xfa,0x00,0x4e,0xfd, // 5760
0x54,0xfd,0x3e,0xfe,0x46,0x00,0x10,0x01, 0xfd,0xff,0x83,0xfd,0xf0,0xff,0x31,0xfc, // 5776
0xf8,0xf6,0x0d,0x00,0x52,0xff,0x1b,0xff, 0x33,0x01,0xcf,0x01,0xaa,0xff,0xc9,0xf8, // 5792
0xc4,0xff,0x82,0xfd,0x8a,0xfb,0xf8,0x00, 0x8d,0x00,0x8e,0xfb,0xc7,0x00,0xaf,0x01, // 5808
0x43,0xff,0x50,0xff,0x62,0x01,0xf8,0xff, 0x3f,0xfc,0x3a,0x00,0xb6,0xfe,0xd2,0xff, // 5824
0xfb,0xfc,0x32,0x02,0x85,0x00,0xf8,0xfe, 0x0c,0x01,0x59,0xfe,0x37,0xfd,0xf3,0x01, // 5840
0x0b,0xfd,0x11,0x02,0x5a,0xff,0xa8,0xff, 0x26,0x02,0x52,0x00,0x83,0xff,0x75,0x00, // 5856
0x5e,0x01,0x79,0xfd,0x8f,0x00,0x3a,0x01, 0x66,0x00,0x72,0xfe,0xe3,0xff,0x15,0xff, // 5872
0xec,0xff,0xae,0x02,0x71,0xfd,0xe6,0xff, 0x4d,0x01,0x20,0x01,0x31,0x01,0x95,0xfb, // 5888
0x22,0x01,0x98,0xfe,0x60,0xff,0xe3,0x00, 0xa8,0xfe,0x15,0x01,0xd5,0xfe,0xf9,0xff, // 5904
0x17,0x00,0xb5,0x00,0xcc,0x00,0x23,0x00, 0x1c,0x00,0xcc,0x00,0x0b,0xff,0xfc,0xfe, // 5920
0x7f,0x01,0x9e,0x01,0xfc,0xfc,0xfe,0xff, 0x94,0xfc,0x2d,0x00,0xb0,0xfe,0x6f,0x00, // 5936
0xcc,0xfe,0x35,0xff,0x54,0xff,0x9c,0xfe, 0x24,0x02,0x74,0x01,0xa1,0x01,0xa0,0xfd, // 5952
0xa4,0xfd,0x27,0xfe,0x28,0x00,0xfc,0x00, 0xb6,0x01,0xc5,0x01,0x93,0xff,0xe7,0x00, // 5968
0x95,0x00,0x69,0xfe,0x31,0x01,0xd9,0xfc, 0x03,0x02,0x08,0x01,0x38,0x01,0xc8,0x00, // 5984
0xa3,0x00,0x0c,0x00,0x21,0x01,0x50,0x00, 0x72,0xfe,0x49,0x01,0x75,0xff,0x11,0x01, // 6000
0x1c,0xfe,0xb9,0xfe,0x93,0x01,0x90,0xff, 0x52,0x00,0x14,0x00,0xd7,0xff,0x62,0xfe, // 6016
0xc0,0x00,0x33,0xfe,0x40,0x00,0x29,0x00, 0x23,0x01,0x02,0xfe,0xce,0x01,0x82,0x01, // 6032
0xdd,0x02,0x84,0xff,0xfd,0x00,0xac,0xff, 0x13,0x01,0x39,0xff,0xdc,0xff,0x07,0xff, // 6048
0x1e,0xfe,0xb8,0xfe,0x59,0xfd,0xdb,0xfd, 0x51,0xfa,0x63,0xfd,0x48,0x00,0xf7,0x02, // 6064
0x30,0x01,0x70,0xfe,0xbb,0x00,0xff,0xfd, 0xfc,0xff,0x9e,0xfc,0x28,0xfe,0xdd,0x00, // 6080
0xf7,0x00,0x43,0xff,0x2e,0x00,0xb9,0xff, 0xd0,0xff,0x97,0x00,0x07,0xff,0xe9,0xf9, // 6096
0x1c,0xff,0x49,0x00,0xb1,0x00,0x67,0xff, 0x7c,0x01,0x08,0x01,0x4b,0x01,0x69,0x01, // 6112
0xa6,0x00,0x3b,0x01,0x6d,0x00,0x9d,0x02, 0xa0,0xff,0x3a,0x00,0x40,0xfb,0x7a,0x00, // 6128
0xb0,0xfe,0x50,0x01,0xe6,0x02,0x7f,0x00, 0xef,0xfc,0xe1,0xff,0x61,0xfe,0x8a,0xfe, // 6144
0xa4,0xff,0x63,0x02,0x7c,0x02,0x04,0xfe, 0xc3,0x00,0x9d,0xfe,0xff,0xfd,0x4a,0x00, // 6160
0x09,0x01,0xd1,0x00,0x99,0x01,0x31,0x00, 0x15,0x00,0xe5,0xfe,0x69,0x01,0xd4,0xfe, // 6176
0xd8,0x00,0xed,0xfd,0x0b,0x01,0x95,0xfe, 0x67,0x01,0xed,0xfe,0x47,0xff,0xde,0xfc, // 6192
0xd3,0xfc,0xdc,0x00,0xa9,0xfb,0xec,0xff, 0x39,0x00,0xcb,0xff,0xa7,0x01,0x30,0xfd, // 6208
0xe3,0xfe,0x10,0x00,0xee,0x01,0x47,0x00, 0x25,0x00,0xe4,0xff,0x7b,0x01,0x28,0xf9, // 6224
0x78,0xff,0x87,0xff,0x83,0xff,0x0a,0xff, 0x62,0xff,0xe3,0x01,0x72,0x01,0x10,0xfe, // 6240
0x40,0x00,0x05,0x02,0x56,0xff,0xf8,0x00, 0xa4,0x01,0x5f,0x00,0x5d,0x02,0x7f,0xff, // 6256
0x35,0x00,0x08,0x00,0x6b,0xff,0xfa,0xfb, 0x44,0xff,0x51,0x00,0xa1,0x01,0x2e,0xfc, // 6272
0xc2,0x00,0xe2,0xff,0x58,0x00,0xec,0xfb, 0xb3,0xff,0xfa,0x00,0x78,0xff,0x32,0xff, // 6288
0x2f,0x01,0x62,0xfb,0x01,0x02,0x76,0xfe, 0x57,0xff,0xce,0x01,0x16,0xfd,0x0a,0x02, // 6304
0xd3,0x00,0x16,0x00,0x2f,0xfd,0x19,0x03, 0xe8,0x01,0x1f,0x00,0x56,0xff,0xc3,0x00, // 6320
0x26,0xfe,0xc1,0xff,0x20,0x00,0xff,0x00, 0x37,0x00,0x68,0xff,0x0d,0xff,0x68,0xff, // 6336
0x73,0xff,0xe5,0xfb,0x3f,0x01,0x5c,0x00, 0xc8,0xff,0x50,0xff,0x62,0x04,0x7d,0x00, // 6352
0xfd,0xf8,0xab,0x00,0xd6,0x00,0xe6,0xf7, 0xdc,0x01,0x17,0x00,0x43,0x00,0x88,0xfb, // 6368
0x53,0xfd,0x4a,0xff,0xcd,0xfe,0x42,0x01, 0xa5,0x00,0x41,0xff,0xcd,0x00,0x74,0xff, // 6384
0xd3,0xfe,0x75,0x00,0x21,0x02,0x70,0xfe, 0xd3,0xfd,0xf4,0x00,0x80,0x01,0xce,0xfe, // 6400
0x5e,0x05,0xcf,0x01,0x88,0x00,0x88,0xf8, 0x49,0xff,0xac,0xff,0xa3,0xfe,0xf9,0xfe, // 6416
0xf3,0x00,0xd0,0xfe,0x7b,0x00,0xa4,0xff, 0x2b,0xfe,0x66,0xff,0x3a,0x00,0xf0,0xff, // 6432
0x02,0xff,0xff,0xff,0x7d,0x00,0xdc,0x01, 0xec,0xfd,0x28,0xfe,0xc4,0xff,0x75,0x00, // 6448
0x07,0xff,0xdb,0xff,0x89,0x00,0x4f,0x00, 0xa0,0xfe,0x2d,0x00,0xfd,0x00,0x5d,0xff, // 6464
0x2b,0xff,0x5e,0x02,0xf9,0x00,0x52,0xff, 0x39,0x01,0xb0,0x01,0x27,0xff,0xc4,0xff, // 6480
0xf9,0xff,0xcd,0x01,0x91,0x03,0x34,0x01, 0x5a,0x01,0xcb,0x01,0xe6,0x00,0xf9,0x00, // 6496
0x6b,0x00,0x11,0x00,0x33,0x01,0xc7,0xfe, 0x54,0x00,0x6f,0x00,0xca,0xff,0xe3,0xff, // 6512
0xe6,0x00,0x56,0x01,0xfe,0xf7,0xc5,0xff, 0xa5,0xff,0xbd,0xff,0x8e,0xff,0xf2,0x00, // 6528
0x30,0x01,0x9f,0x00,0xfd,0xff,0x4b,0x02, 0x33,0xf8,0xdb,0xfc,0xb0,0xf3,0x6d,0xfd, // 6544
0x02,0x02,0xba,0xfe,0x10,0xfe,0xf4,0xfe, 0x44,0xff,0x70,0x03,0xe4,0xfd,0x1d,0x00, // 6560
0xe8,0xfe,0xc8,0xfe,0xc0,0xfe,0x9f,0xff, 0x40,0xfe,0xbf,0x00,0x94,0x02,0x61,0xff, // 6576
0xed,0xff,0x2b,0x06,0x8f,0xff,0x7a,0xfe, 0xb7,0xff,0x87,0x00,0xb9,0xff,0x7f,0x00, // 6592
0xb5,0x01,0x08,0x02,0x13,0x02,0xa9,0x00, 0xb8,0x01,0x3c,0xfc,0x3e,0x00,0xde,0x01, // 6608
0x53,0xff,0x50,0x01,0xca,0xfe,0x4e,0x00, 0x02,0x02,0xaf,0xff,0xcc,0x00,0x11,0x05, // 6624
0xca,0x02,0xd4,0xff,0xe3,0x02,0xec,0x00, 0x14,0xfd,0xfc,0xff,0x11,0x00,0x53,0x01, // 6640
0xd9,0x01,0x99,0xfe,0x40,0x00,0xa6,0xfe, 0x1c,0x00,0x69,0xfe,0x0c,0x02,0xed,0x00, // 6656
0xa1,0x00,0xad,0xfe,0x19,0xfe,0x3e,0xfe, 0xfb,0xfe,0x9f,0x01,0xf0,0xff,0xe5,0x00, // 6672
0x83,0xfe,0xdf,0xfd,0x3d,0xfd,0xc7,0x00, 0xab,0xff,0xb0,0x01,0x86,0xff,0x28,0x00, // 6688
0xc8,0x01,0x81,0x00,0x92,0x00,0x44,0x00, 0xaa,0x01,0x47,0xfd,0x0d,0x00,0x7f,0x01, // 6704
0xec,0x00,0x77,0xff,0xe3,0xfa,0xc8,0xff, 0x94,0x00,0x75,0xef,0xff,0x00,0x21,0x00, // 6720
0x60,0x00,0x97,0x01,0xc7,0xfb,0xd0,0x00, 0x27,0x00,0x2f,0xfc,0x38,0xff,0x4a,0x00, // 6736
0x92,0xfe,0x24,0x00,0x3f,0x01,0xab,0x00, 0x93,0xf7,0x74,0x00,0xf0,0xfe,0x5d,0xfe, // 6752
0x1f,0x01,0xe9,0xff,0xe0,0xff,0xb9,0xff, 0x15,0x01,0x46,0xff,0xcd,0x02,0x33,0xff, // 6768
0xd7,0x01,0xfd,0xfd,0xaf,0xff,0xcb,0x00, 0x82,0x02,0xe1,0x00,0xe1,0x01,0x35,0x00, // 6784
0xc9,0x02,0x70,0x00,0x05,0x02,0x91,0xfc, 0x04,0xff,0x0f,0x01,0xe4,0x00,0x9f,0xfe, // 6800
0xa1,0x03,0x08,0x01,0x11,0x02,0x46,0x01, 0x22,0x00,0x81,0x02,0x84,0x00,0x01,0x02, // 6816
0xe5,0x00,0xd1,0x00,0x55,0xff,0x48,0xfe, 0x04,0x00,0x7d,0x01,0xe1,0xfe,0x0d,0x00, // 6832
0xd2,0xfd,0xfb,0xfe,0x6e,0x02,0x65,0x01, 0x47,0xff,0xcc,0x00,0x12,0x00,0xf9,0x03, // 6848
0xd9,0x01,0xde,0x04,0x00,0xff,0x51,0x00, 0xb4,0xff,0x12,0x00,0xe7,0xfe,0xff,0xfe, // 6864
0x2d,0x01,0x19,0xff,0x25,0xfd,0xce,0xfe, 0x4d,0xff,0x94,0x00,0x91,0xfe,0x23,0xff, // 6880
0xed,0x01,0x20,0xff,0xc6,0x01,0x50,0xff, 0xe5,0x01,0xe9,0x00,0x5a,0x01,0x27,0x00, // 6896
0x19,0x00,0x15,0xff,0x53,0x01,0x0d,0x00, 0x91,0xff,0x3d,0x02,0x69,0xfc,0x99,0xff, // 6912
0xb7,0x01,0xbf,0x00,0xc5,0xfe,0x35,0x03, 0xa0,0xff,0xd0,0xff,0x3c,0x01,0x43,0x02, // 6928
0x9b,0xff,0xd9,0xff,0xc5,0xfe,0xaf,0x01, 0x94,0xff,0x1e,0x02,0x5b,0x00,0x08,0x01, // 6944
0xc0,0x00,0x83,0xff,0xe1,0x02,0x6c,0xfd, 0xbc,0xff,0xcd,0xfe,0xbd,0xff,0xf3,0x00, // 6960
0xb4,0xfd,0x21,0x02,0x85,0x02,0x58,0x00, 0x61,0x00,0x62,0x00,0x7d,0x01,0xc5,0x00, // 6976
0x72,0x00,0x6a,0xff,0xe4,0xfd,0x0d,0x00, 0x5c,0x00,0x67,0x00,0x64,0xff,0x4e,0xfc, // 6992
0x58,0xfe,0x87,0x00,0xfb,0xff,0xe3,0xfe, 0x4f,0x00,0x23,0x01,0x38,0x01,0xc1,0xff, // 7008
0x86,0xff,0x24,0x02,0xb6,0xfe,0x85,0x02, 0x42,0xff,0x22,0x01,0x4d,0x00,0x34,0x00, // 7024
0x17,0xff,0xd7,0xfe,0x6c,0x01,0x5e,0xfe, 0x8e,0xfd,0xcc,0xfd,0xea,0xfe,0xd1,0xfc, // 7040
0x27,0x01,0x3c,0x00,0x50,0xfe,0x29,0xfe, 0x1e,0x01,0x2b,0xf7,0x5e,0x00,0xe4,0xf6, // 7056
0x2b,0xff,0x13,0x00,0x89,0xfd,0x9a,0x00, 0x4e,0xfe,0x89,0x04,0x18,0x01,0xa8,0x03, // 7072
0x98,0x00,0x69,0x00,0xfc,0xff,0x0c,0x01, 0x8c,0xfb,0x13,0xff,0x75,0xfb,0xa5,0xff, // 7088
0x38,0x00,0xa2,0x00,0x88,0xff,0x2c,0x01, 0xd0,0x00,0x6e,0x00,0x5b,0xfb,0xd8,0xfe, // 7104
0x17,0xfe,0xff,0xff,0x62,0x01,0x4f,0x01, 0x8f,0xfe,0x38,0xfd,0x7c,0x00,0x9b,0x01, // 7120
0xbd,0xff,0x86,0xfb,0x51,0xfd,0x01,0xfd, 0x8c,0xfc,0x0e,0x00,0x40,0xff,0x39,0xff, // 7136
0x49,0x01,0xfe,0xfa,0x48,0xfc,0x3c,0x02, 0xa0,0xff,0x3b,0xff,0xda,0xff,0x64,0xfb, // 7152
0x88,0xff,0x06,0xfd,0x6d,0xfc,0x7a,0xff, 0xc4,0xff,0x80,0x00,0x6d,0xfd,0x86,0xfc, // 7168
0x5e,0xff,0x09,0xfe,0x06,0x01,0xb9,0xfc, 0x6f,0x00,0x4b,0x00,0x62,0xff,0xad,0xff, // 7184
0x62,0xff,0x04,0xfe,0x11,0x02,0x56,0xfd, 0x3a,0x01,0x2d,0xff,0x7b,0xfe,0xc7,0xfe, // 7200
0xdf,0xfe,0xfb,0xfc,0xb0,0xfe,0x42,0x00, 0x07,0x00,0x07,0xfe,0x2a,0xfe,0x81,0xfd, // 7216
0x24,0x02,0x52,0x02,0x24,0x00,0x03,0x00, 0x84,0xfd,0xcc,0xf8,0xfd,0xfc,0x82,0x01, // 7232
0xae,0x01,0x75,0x01,0xbf,0xfe,0xe4,0x02, 0x19,0x03,0x69,0xff,0x51,0xff,0xcb,0x01, // 7248
0x90,0xfb,0x89,0xfe,0x37,0x01,0x50,0x01, 0x7c,0xfe,0x06,0x01,0x32,0x04,0x6d,0xfb, // 7264
0x2a,0x00,0xad,0xff,0xeb,0x02,0x04,0xfb, 0xc8,0xfd,0x9a,0xfd,0x91,0x00,0x13,0x00, // 7280
0xe0,0xff,0xac,0xfc,0x9f,0xfe,0x36,0xfc, 0xb8,0xff,0xc2,0xfe,0x8a,0xff,0xa7,0xff, // 7296
0x9b,0x02,0x3c,0xff,0x2b,0xff,0x8a,0xfe, 0x42,0xfd,0xf4,0xfb,0xdd,0xff,0x9f,0x00, // 7312
0x5d,0xf9,0x49,0x01,0xfd,0x02,0x19,0x01, 0x01,0xfc,0xfa,0x00,0x64,0x03,0x46,0x02, // 7328
0x77,0xfd,0xa4,0x00,0x39,0xfe,0xbb,0x00, 0xce,0x00,0x66,0x00,0xc5,0xff,0xaa,0x00, // 7344
0x0d,0xfe,0x3f,0x01,0xc4,0xfd,0x71,0x02, 0x86,0xfd,0x21,0x00,0x85,0xff,0x75,0x00, // 7360
0xcf,0xfd,0xc9,0x00,0x66,0x02,0x6f,0x00, 0x5b,0x00,0x75,0x00,0x72,0x00,0xcf,0x00, // 7376
0x45,0x00,0xaa,0xff,0x9b,0xfe,0x13,0xfc, 0x1d,0xff,0x6f,0x00,0xf4,0x00,0xa6,0xfe, // 7392
0x83,0x02,0x3b,0xff,0xd3,0xff,0x59,0x01, 0x0c,0xff,0x31,0x01,0x30,0x02,0x18,0xff, // 7408
0x26,0x01,0xfd,0xff,0xb5,0x01,0x43,0x00, 0xcf,0xff,0x7d,0x01,0x55,0xfe,0xf1,0x00, // 7424
0x00,0xfe,0x21,0x01,0x77,0x01,0xfc,0x01, 0x0c,0x00,0x8b,0xfe,0x39,0x02,0x6c,0x01, // 7440
0x17,0xff,0x71,0x01,0x04,0x01,0xc5,0x00, 0x36,0xff,0x0d,0x02,0x8e,0xff,0x51,0x01, // 7456
0xc3,0x00,0xa5,0x00,0x99,0x00,0x4b,0xfd, 0xb9,0xfc,0x8d,0x05,0x1f,0xfe,0xe7,0x00, // 7472
0xa1,0xfe,0xa6,0x00,0x73,0x00,0xcc,0x00, 0x9d,0x02,0x11,0xfb,0x66,0x01,0x53,0xff, // 7488
0x5f,0x00,0xc2,0xff,0xca,0x00,0x8a,0x00, 0x0d,0xff,0x67,0x00,0xa7,0x00,0xdb,0xfa, // 7504
0x25,0xfb,0x9d,0xff,0x4b,0xfb,0x87,0x01, 0xfc,0xfd,0xd4,0xfe,0xc1,0xff,0x4b,0xfe, // 7520
0xf9,0xff,0x05,0xff,0x4f,0x00,0x7a,0xff, 0xb6,0x02,0xce,0xfe,0x0a,0x00,0x33,0x00, // 7536
0x09,0x01,0x5b,0x00,0x41,0xfc,0xa7,0xfb, 0x81,0xf7,0x5a,0xff,0x91,0xfe,0x34,0xff, // 7552
0x33,0x00,0xd8,0xfd,0xe6,0xfe,0x65,0x00, 0x28,0xfe,0x17,0x01,0xdd,0xfe,0x57,0x00, // 7568
0x19,0x01,0x62,0x01,0xd3,0x00,0xc8,0x01, 0x00,0x02,0xcd,0xfd,0x59,0x00,0x77,0xfb, // 7584
0x6c,0x00,0x36,0x01,0x0b,0x02,0xac,0xff, 0xa0,0x00,0x7b,0x00,0x8e,0xff,0x9f,0x02, // 7600
0x75,0x03,0x92,0xff,0xec,0x01,0x96,0x02, 0x92,0xfd,0xd1,0xff,0xf2,0x00,0x1c,0x01, // 7616
0x56,0x00,0xc5,0xff,0xae,0xff,0x5f,0x01, 0xe2,0xff,0x12,0xfc,0x3b,0x03,0xeb,0xff, // 7632
0x3c,0xff,0x22,0x01,0x8e,0xfe,0x1d,0x02, 0x2c,0xfe,0x9e,0xff,0x6d,0x00,0xed,0x02, // 7648
0x2b,0x01,0x56,0x01,0x72,0xff,0xc5,0x00, 0x6a,0x01,0xbb,0xff,0xa9,0x00,0x2e,0x01, // 7664
0x4f,0xfe,0x0d,0xfc,0x1a,0xff,0xc8,0xfe, 0x8c,0x00,0x0f,0x01,0xe5,0xfe,0x49,0x00, // 7680
0x28,0x00,0x7a,0xfe,0x9a,0xfe,0xc1,0xfe, 0x8c,0xff,0x1a,0x01,0xb4,0xff,0x1d,0x00, // 7696
0x52,0xfc,0x33,0x03,0xd4,0x00,0xb7,0xfe, 0x58,0xf9,0x17,0x00,0x91,0xf7,0x6c,0x00, // 7712
0xd1,0xfe,0x6f,0xff,0x3a,0xff,0x62,0xff, 0x7f,0x00,0x40,0x00,0x13,0x00,0x1f,0x00, // 7728
0xfb,0xfe,0x7b,0x04,0x07,0xff,0x8c,0x01, 0x32,0x03,0x5e,0x01,0xff,0x00,0xb3,0xff, // 7744
0xa6,0xfe,0xa8,0x01,0x5b,0xff,0xfd,0xff, 0x7e,0xfe,0x71,0x00,0x40,0x01,0x0d,0xff, // 7760
0x3d,0x02,0xc6,0xff,0xf6,0xfe,0x51,0x01, 0xc4,0xff,0x63,0x00,0xf5,0xff,0x39,0x01, // 7776
0xb4,0x00,0xbe,0xff,0xa3,0xff,0xb8,0xff, 0xee,0xfe,0xf8,0x01,0xdc,0x00,0xf4,0xf8, // 7792
0x74,0xff,0x96,0xf8,0x8c,0xfe,0x53,0x00, 0xd0,0xfb,0xc6,0xfc,0x67,0x00,0xcd,0xfd, // 7808
0x85,0x04,0x53,0xff,0x51,0xfd,0x31,0xff, 0x7f,0x02,0x68,0xfc,0x59,0xff,0x27,0x02, // 7824
0xf6,0x01,0xed,0xff,0xb6,0xfd,0x15,0xff, 0xc8,0x02,0xb1,0x00,0x1e,0xff,0x24,0x00, // 7840
0x45,0x00,0xa6,0x00,0x34,0xfe,0xfb,0x00, 0xf0,0xff,0x26,0xff,0x3d,0xfe,0xed,0xff, // 7856
0x96,0xff,0xc9,0xfb,0x0c,0xfe,0xe5,0xfe, 0xce,0x00,0x99,0x01,0xa5,0xfe,0x52,0x02, // 7872
0xfc,0xfa,0x16,0xf6,0xc8,0x00,0xb7,0xff, 0x64,0xfd,0x56,0xff,0x42,0x03,0x84,0xff, // 7888
0xc4,0xff,0xc5,0xff,0xc2,0xfd,0xf8,0xfe, 0xdc,0xfa,0xc4,0xfe,0x96,0xff,0x51,0xff, // 7904
0x5f,0x00,0xc6,0x00,0x25,0x01,0x64,0x00, 0x76,0xfe,0x1e,0xff,0x33,0x00,0xea,0xff, // 7920
0x37,0x03,0xe4,0xff,0x90,0xfc,0x6f,0x00, 0x2f,0xff,0xbe,0xff,0xc7,0xfe,0x15,0xfd, // 7936
0xb5,0x01,0x1e,0xff,0xdd,0x00,0xb8,0x00, 0xc9,0x01,0xf1,0xfa,0x9d,0x00,0x65,0x00, // 7952
0x2a,0x01,0x0c,0x00,0x98,0xfe,0x3c,0x01, 0xbc,0xff,0x72,0xf8,0x53,0xfe,0x79,0x02, // 7968
0xad,0xfd,0xa4,0x01,0x4e,0xfe,0x15,0x00, 0x01,0x01,0x1a,0x00,0x5a,0x00,0xc2,0x02, // 7984
0x68,0x01,0xc8,0x00,0x5c,0x00,0x08,0xfc, 0xd6,0xff,0x32,0x02,0x4e,0x00,0x43,0x00, // 8000
0x5d,0x00,0x90,0xfe,0x9b,0x00,0xaa,0xfc, 0x96,0x00,0x43,0x01,0x0f,0xfe,0x46,0xff, // 8016
0x86,0xfa,0x65,0xfe,0x43,0xff,0x96,0x02, 0xa8,0x00,0x01,0xfd,0xbe,0xfe,0xf7,0xfd, // 8032
0xf9,0xff,0xdc,0xfc,0xfe,0xfe,0x6f,0xfd, 0xc4,0x02,0x83,0xff,0x38,0xfa,0x38,0x02, // 8048
0xa5,0xff,0x60,0x01,0xa9,0xff,0xba,0xfc, 0x34,0x00,0x4a,0x01,0x0b,0xfc,0xb4,0x00, // 8064
0xab,0x00,0x7b,0x00,0xc4,0xfa,0x3d,0x03, 0x9e,0x01,0x74,0x02,0x59,0x00,0x3e,0x01, // 8080
0xad,0x01,0x8b,0xff,0x4d,0xfc,0x71,0x01, 0x6b,0xfe,0x0e,0xff,0x74,0x02,0x99,0x01, // 8096
0x15,0xfd,0xfc,0x01,0x3a,0x00,0xea,0xff, 0x2d,0x00,0x64,0xff,0xb8,0xfd,0x6a,0xfe, // 8112
0x90,0xff,0xe8,0x00,0xf9,0x01,0x61,0xfd, 0x3a,0xff,0xb0,0x01,0x79,0x00,0x4c,0x00, // 8128
0x13,0x01,0xcd,0xfe,0x4b,0xff,0xa5,0xf8, 0xe4,0x02,0xae,0x01,0x8b,0x02,0x4d,0x00, // 8144
0x18,0x00,0xed,0xfd,0x83,0xf7,0x4e,0x00, 0x86,0x04,0x2c,0xff,0x82,0xfe,0xff,0x00, // 8160
0xb1,0x02,0xcb,0x01,0x12,0xfc,0x62,0x00, 0x78,0x02,0xe2,0xff,0xc1,0xff,0x5b,0xff, // 8176
0xd2,0xfe,0xb0,0xff,0x45,0xff,0x51,0x01, 0x09,0x00,0x66,0xfe,0x66,0xfc,0xb5,0x01, // 8192
0x83,0xfd,0xc8,0xff,0xa8,0xfb,0xfd,0xfd, 0xe2,0xff,0x35,0x00,0xb1,0x00,0x04,0xfe, // 8208
0x46,0xfe,0x9e,0x00,0x5a,0xfc,0x91,0x00, 0x3d,0xfe,0xc4,0x01,0xc0,0x00,0x36,0xfe, // 8224
0x81,0xff,0x56,0x01,0x98,0xfb,0x6d,0xff, 0x5b,0xff,0x98,0xff,0x38,0x02,0xdc,0xff, // 8240
0xa8,0x00,0xc0,0x01,0xa1,0x01,0x14,0x01, 0x0f,0x03,0xbb,0xff,0x38,0x04,0x35,0x00, // 8256
0xb7,0xfc,0x00,0xfe,0x2c,0x00,0xcd,0xff, 0x40,0xfd,0x3a,0x00,0x0c,0x04,0x94,0xfc, // 8272
0x82,0xfe,0x96,0xfc,0xf0,0xff,0x3c,0xfc, 0x1c,0x00,0x9f,0x02,0xa3,0x00,0x9a,0x00, // 8288
0x7e,0xfc,0xdf,0x00,0x9f,0xfc,0x27,0x02, 0x64,0xff,0x43,0x00,0xe3,0xfe,0x31,0xff, // 8304
0xa8,0xff,0xcc,0x01,0x47,0xff,0xb0,0xf8, 0xb3,0xff,0xa0,0x00,0x1b,0xfe,0xcf,0x01, // 8320
0x77,0xfe,0xea,0x00,0xde,0xfe,0x41,0xfe, 0x92,0xff,0x58,0xff,0xb6,0xff,0xd8,0xfe, // 8336
0x7d,0xff,0x1f,0x02,0x46,0x02,0x69,0xff, 0xce,0xfd,0x70,0xfe,0x96,0xfe,0x85,0xfe, // 8352
0xdc,0x00,0x72,0xff,0x3f,0xfe,0xa1,0x01, 0x1c,0x01,0x85,0xff,0x9c,0x00,0xfe,0xff, // 8368
0xca,0xff,0x54,0xfe,0x66,0xfd,0x54,0x00, 0x9c,0xf6,0xc9,0xfd,0x52,0x07,0x8e,0xff, // 8384
0x1b,0x00,0xed,0xfe,0x79,0x01,0xd5,0xfb, 0x26,0xff,0xe3,0xff,0x37,0xff,0xf9,0x01, // 8400
0xf4,0xff,0xeb,0x00,0xc8,0xff,0xc9,0xf9, 0x4a,0xfb,0x60,0xff,0x61,0xfc,0x59,0x00, // 8416
0x7d,0xfa,0x63,0xfd,0xe1,0xf9,0x93,0xfe, 0x09,0x02,0x95,0x03,0xb9,0xff,0x0f,0x00, // 8432
0x17,0x00,0x73,0xff,0x0f,0x03,0xb6,0xfc, 0xc6,0xfe,0xa6,0x00,0xe3,0xff,0x76,0xff, // 8448
0x5d,0xfe,0x7f,0x00,0xd1,0xff,0x34,0x00, 0xb7,0x00,0xaf,0xff,0x86,0xff,0x70,0xfd, // 8464
0x37,0x00,0x8e,0x00,0xf7,0xff,0xe6,0xff, 0x27,0x01,0x2c,0x01,0x98,0x03,0xd7,0x00, // 8480
0x06,0x01,0xe9,0xfe,0xdd,0xff,0x6a,0x01, 0x51,0x00,0x7a,0x00,0x98,0x00,0x63,0xfd, // 8496
0xea,0x01,0x33,0xfc,0xdf,0xfe,0xde,0xff, 0x13,0x01,0x90,0xff,0xbd,0x01,0x01,0x01, // 8512
0xbc,0x00,0xbc,0xff,0x86,0xfc,0xb1,0xff, 0xab,0xfb,0xa5,0xff,0x54,0xfb,0x69,0x00, // 8528
0x40,0xfa,0x09,0xfe,0x3a,0xfe,0xd2,0xfe, 0xfe,0xff,0x0b,0xff,0xe3,0x03,0x3f,0x00, // 8544
0x24,0x00,0x02,0x00,0x98,0xfe,0x7d,0xfe, 0x46,0x01,0x85,0xff,0x0d,0x00,0xac,0x00, // 8560
0x7b,0xff,0xc6,0xfe,0xf8,0xff,0xef,0xff, 0xfc,0xfe,0xf7,0xfe,0xda,0x00,0x19,0xfe, // 8576
0xe3,0xfc,0xbb,0x00,0xa8,0x00,0x60,0x00, 0x33,0x00,0x63,0x00,0xa5,0x01,0x2c,0x00, // 8592
0xd6,0xfd,0x8c,0xff,0x3b,0x01,0x3f,0xf9, 0x58,0xfe,0x79,0x01,0xb4,0xff,0x15,0xfe, // 8608
0xba,0x01,0xb7,0x00,0xe2,0xfe,0xfb,0xfe, 0x1d,0xff,0x95,0xff,0x1a,0x02,0x8a,0xff, // 8624
0x13,0x00,0x72,0x00,0x43,0xfd,0x89,0x00, 0x1f,0x00,0x3f,0x02,0xa8,0xfe,0x0f,0x01, // 8640
0x5d,0x00,0x75,0xfe,0xdf,0xff,0xd5,0x00, 0xc0,0xfd,0x1d,0xff,0x16,0x01,0x99,0x00, // 8656
0xb2,0xfd,0x52,0xfd,0x8b,0x00,0xf1,0xfe, 0xb2,0xfb,0x36,0xfe,0x73,0xfe,0xd4,0x01, // 8672
0xb4,0x00,0x22,0xff,0x64,0x00,0x70,0xfe, 0x97,0xfd,0xc1,0x00,0xc9,0xff,0xce,0xff, // 8688
0xd5,0xff,0x6b,0xff,0x22,0x00,0x42,0x00, 0x28,0x01,0x13,0x02,0xbc,0x01,0x5d,0xff, // 8704
0x78,0xff,0x0e,0xff,0xbf,0xfe,0xd9,0xff, 0x8d,0xff,0x31,0x00,0x4b,0xfd,0xb8,0xfd, // 8720
0x09,0x01,0x06,0x00,0xde,0xfb,0x35,0x01, 0x5e,0x01,0x5c,0x01,0x42,0xfe,0xcc,0xff, // 8736
0x80,0x01,0x24,0x00,0x24,0x01,0xe6,0x00, 0xbc,0xff,0xdd,0x00,0xdb,0xff,0x6f,0xff, // 8752
0x57,0xfe,0xfb,0x00,0x81,0xf9,0xa0,0x01, 0xa9,0xfe,0x54,0xfe,0x75,0xff,0xc3,0x00, // 8768
0x13,0x01,0xed,0xff,0x91,0x00,0xa2,0x00, 0x94,0x02,0x32,0xfe,0x95,0xfe,0x4d,0xfc, // 8784
0xde,0xfc,0x90,0xff,0xb1,0xfd,0xee,0x00, 0x66,0x01,0x49,0x01,0xba,0x00,0x6f,0xff, // 8800
0x27,0x00,0x9b,0x01,0xfe,0xff,0x4d,0xfe, 0x33,0xff,0xd2,0x01,0x69,0xff,0x10,0x01, // 8816
0x71,0x00,0x43,0x01,0xbf,0xfe,0xfc,0xff, 0xe4,0xfe,0xb9,0xff,0x27,0xff,0x01,0x02, // 8832
0x3d,0x00,0x2e,0x00,0x7c,0xff,0x61,0xff, 0xda,0x00,0x1a,0x02,0x42,0x00,0xce,0xff, // 8848
0xd2,0xfb,0xb7,0xff,0x26,0xf7,0xb6,0x01, 0xc6,0x01,0x40,0x02,0xd2,0x01,0xf6,0xff, // 8864
0xbc,0xff,0x04,0x00,0xe6,0xfd,0x8c,0x00, 0xf0,0xff,0x86,0x00,0x41,0xfe,0xee,0x01, // 8880
0xa5,0x00,0x5f,0xfe,0xf0,0xff,0x48,0x02, 0xec,0xff,0x86,0xf6,0x77,0xff,0xa4,0x00, // 8896
0x26,0xfe,0xfe,0xfe,0x34,0xf6,0x72,0x00, 0xe2,0x00,0x8d,0x01,0xaf,0xfe,0xd8,0xff, // 8912
0xe5,0xff,0x50,0x00,0xc5,0xfe,0xbc,0xff, 0x1b,0xff,0x87,0xfe,0x42,0xfe,0x92,0x01, // 8928
0xe7,0xfe,0x9e,0xfe,0x69,0xff,0xf0,0xff, 0x11,0x00,0x4a,0x02,0xda,0xfe,0xe9,0xfe, // 8944
0x85,0x01,0x5d,0xff,0x62,0xff,0x69,0xfe, 0x7f,0x01,0x64,0xfe,0xd4,0x00,0xb4,0xff, // 8960
0x7e,0x00,0xe3,0x00,0x96,0x00,0x82,0xff, 0x9d,0x00,0x0a,0xf6,0x3b,0xff,0xdc,0xff, // 8976
0x4d,0xfa,0xc1,0xfc,0x53,0x01,0x20,0xfd, 0x87,0xff,0xfb,0xfd,0x47,0x00,0xb8,0x01, // 8992
0x06,0x00,0xd3,0x00,0xad,0x00,0x42,0xff, 0x22,0x02,0x08,0x00,0x37,0xff,0xf5,0xff, // 9008
0x97,0x01,0x49,0x01,0x37,0xff,0xb6,0xfd, 0x98,0xf9,0x5c,0xfe,0x8c,0xfe,0x69,0xff, // 9024
0xfc,0x00,0x15,0x01,0x11,0x01,0xa5,0xff, 0xa4,0x00,0x98,0xff,0x0f,0x01,0xd0,0xfe, // 9040
0xde,0xfd,0x03,0x02,0x12,0x02,0x5d,0xfe, 0x2b,0x00,0x35,0x01,0xf8,0x00,0x69,0xff, // 9056
0x1c,0x00,0x55,0x00,0x75,0x01,0x60,0xfe, 0xa3,0x00,0x92,0xfe,0xd4,0xff,0x9f,0x00, // 9072
0x48,0x01,0x0f,0x00,0xe6,0x00,0x59,0xfb, 0xfd,0xfe,0x81,0x01,0x8e,0x01,0xbc,0xff, // 9088
0xce,0xff,0x12,0x02,0xea,0x01,0x4d,0x00, 0x9d,0x00,0x4c,0xfd,0x59,0x00,0x30,0x02, // 9104
0xf5,0xff,0x6d,0x00,0x2c,0x02,0x66,0x03, 0xf6,0xff,0xe6,0xfe,0x80,0x00,0x60,0x01, // 9120
0x20,0x01,0x2d,0x02,0x76,0xfb,0x59,0xff, 0xd6,0xff,0x62,0x00,0xfb,0xfe,0xe0,0x01, // 9136
0xd0,0xfc,0x46,0x00,0x4f,0xfb,0xbc,0x00, 0x83,0x00,0xd7,0xff,0xe5,0x00,0x44,0xfc, // 9152
0xcd,0x00,0xcc,0xff,0xbd,0x00,0xa3,0xff, 0x32,0x01,0x1c,0x01,0x16,0xfe,0xa2,0x00, // 9168
0x33,0xff,0xca,0xff,0x5a,0xff,0x0e,0x00, 0x4b,0x01,0xc7,0xff,0xbd,0x00,0x55,0x00, // 9184
0xae,0xff,0xb6,0xff,0x2e,0xfd,0x6c,0x02, 0x3c,0x01,0xce,0x00,0x1f,0x02,0xae,0x01, // 9200
0x0b,0x01,0x7a,0x01,0x2e,0xff,0x65,0x00, 0xb4,0xff,0x93,0xff,0xea,0xff,0xfb,0xfd, // 9216
0x64,0xfc,0x45,0x00,0x4c,0x02,0xde,0xfd, 0x96,0x00,0x5c,0x00,0x8d,0x00,0xb5,0xff, // 9232
0x9a,0x00,0xfb,0x00,0x83,0xfe,0x1e,0x00, 0x08,0xff,0x67,0xff,0xbe,0xff,0x8e,0xfe, // 9248
0xcc,0xff,0x57,0x01,0x9b,0x00,0xe7,0xff, 0x53,0x01,0xca,0xfe,0x92,0xff,0x22,0x00, // 9264
0xaf,0x01,0xf3,0xfd,0x5c,0x00,0xb0,0x00, 0x1c,0xff,0x4f,0x00,0xc7,0xff,0xd6,0xfe, // 9280
0x49,0xfe,0xaf,0x00,0x74,0xfe,0x5b,0xff, 0x18,0x00,0xeb,0x00,0xfe,0xff,0x50,0xfe, // 9296
0x4a,0xfe,0xdf,0xfe,0x9e,0xfc,0x00,0xff, 0x34,0x02,0xc9,0x01,0x3d,0x01,0xad,0xfe, // 9312
0xb2,0xff,0xe4,0xff,0x5d,0xff,0x10,0x00, 0xca,0xfd,0xf4,0xfd,0x19,0xff,0x24,0xf6, // 9328
0x5c,0x01,0x45,0x01,0xa4,0x00,0x90,0x01, 0x3b,0x00,0xa6,0x00,0xc1,0x00,0x11,0x01, // 9344
0x5c,0xff,0x66,0xff,0xa0,0xff,0x41,0x03, 0xfd,0xfe,0x60,0x02,0x7d,0x02,0x8f,0x00, // 9360
0x16,0x00,0xc9,0x01,0xe4,0xfa,0xa3,0xfe, 0x52,0x03,0x7d,0x00,0x76,0xfc,0x7b,0xfe, // 9376
0x27,0x00,0xa8,0xfe,0x42,0x00,0x04,0xff, 0x61,0xfe,0xaf,0xfe,0x9b,0x00,0x3d,0x01, // 9392
0x43,0x00,0xef,0xfe,0x29,0x01,0x76,0xff, 0x2d,0x01,0x11,0x00,0xab,0xfc,0x98,0x01, // 9408
0xf7,0xff,0xd7,0xff,0xb3,0xfe,0x68,0x01, 0x1e,0xff,0x0c,0xff,0x5d,0xfd,0x30,0xff, // 9424
0xa5,0xff,0x21,0xff,0xa1,0xff,0x78,0xfc, 0x80,0x00,0x38,0xff,0x07,0x00,0x94,0xf7, // 9440
0x43,0xff,0x4e,0xff,0x4d,0xfd,0x6c,0xfd, 0x8a,0xff,0x57,0x00,0x4e,0x00,0xe8,0xff, // 9456
0x63,0x01,0x01,0x01,0x90,0xfe,0xbd,0xfd, 0x97,0x00,0xc4,0x01,0xe6,0xf9,0x02,0x00, // 9472
0x8a,0xff,0x14,0x00,0xeb,0xfd,0x47,0x00, 0x5a,0x00,0xa7,0x00,0x23,0x00,0xcf,0xff, // 9488
0x17,0x00,0x1a,0x00,0xeb,0x02,0x5a,0x00, 0x63,0xfe,0x9f,0x02,0xad,0x00,0x1a,0x01, // 9504
0x1d,0xf6,0x05,0x02,0x35,0xfe,0x9f,0x04, 0xa9,0x00,0x42,0xff,0xb2,0xfe,0xff,0x00, // 9520
0x3e,0x01,0xa8,0x00,0x66,0x00,0x67,0xf9, 0xc2,0xfc,0xe8,0xfe,0xe2,0x00,0xc0,0x00, // 9536
0xd0,0x00,0xa1,0xfd,0x95,0xf8,0xc2,0xfe, 0x28,0xff,0x8a,0xfc,0xe3,0xff,0xc3,0x00, // 9552
0x9b,0x01,0x41,0x01,0x7f,0xfe,0xc5,0x02, 0x41,0x03,0x11,0x01,0xe0,0x00,0xa7,0x01, // 9568
0x0d,0xfe,0x52,0x01,0x3a,0x00,0xf5,0x00, 0xc6,0x00,0x4c,0xff,0xd7,0x01,0xf6,0xfe, // 9584
0xbf,0xff,0x89,0xff,0xaa,0x00,0xea,0xff, 0xd3,0x00,0xb2,0xfd,0xb3,0xfe,0xe2,0x00, // 9600
0xab,0x01,0x74,0x00,0x85,0x00,0x2d,0x00, 0xf3,0xfc,0x87,0xfe,0xe5,0x00,0xae,0x03, // 9616
0xba,0x01,0x33,0x01,0xff,0xff,0xb9,0xff, 0xcc,0xfe,0xc7,0xff,0x04,0xfe,0x98,0xff, // 9632
0xc4,0x00,0x76,0x02,0x5e,0x02,0xfa,0xfe, 0x82,0x01,0xe1,0x02,0x48,0x02,0x62,0x03, // 9648
0xfc,0x01,0x66,0x00,0xce,0xfc,0x21,0x00, 0x56,0xff,0x15,0x03,0xf3,0xfc,0x73,0x00, // 9664
0x03,0x02,0xdb,0x00,0x94,0xfb,0xbe,0xff, 0x66,0xff,0x9f,0x00,0xa9,0x00,0x72,0x00, // 9680
0x1d,0x00,0x31,0x01,0xee,0x00,0xf4,0x02, 0x58,0xfe,0x07,0x03,0xb4,0x00,0x9f,0x02, // 9696
0x56,0x02,0xb1,0xff,0x76,0xff,0xa6,0xfd, 0xf3,0xff,0xf9,0x00,0x53,0xfd,0xbc,0x00, // 9712
0xbe,0x00,0x6e,0xff,0x98,0xff,0xac,0x01, 0xd6,0x01,0x85,0xfc,0xc8,0xff,0xb3,0x00, // 9728
0x4a,0x00,0xca,0xfe,0x9f,0xff,0x7a,0x00, 0x1a,0x00,0xd0,0x00,0x72,0x01,0x46,0x00, // 9744
0xed,0x00,0xe5,0xfe,0xfd,0x00,0x8d,0x00, 0x35,0x00,0x39,0xff,0x72,0x01,0x39,0x00, // 9760
0xb7,0xff,0xb9,0xff,0xdd,0x00,0x4c,0xfd, 0xff,0x00,0x79,0xff,0xc7,0xfe,0x8f,0xff, // 9776
0x35,0x01,0x3c,0xfc,0x51,0xfb,0x73,0xff, 0x6a,0x02,0xa5,0xfe,0x0f,0x02,0xb0,0x00, // 9792
0x98,0x00,0xf2,0xfd,0x4a,0xfb,0x40,0x00, 0x3b,0x00,0x19,0x01,0x83,0x00,0x10,0x01, // 9808
0xab,0x01,0x05,0x01,0xd0,0x02,0x30,0x01, 0x93,0xfe,0xd7,0xff,0x43,0xff,0x34,0x00, // 9824
0x0e,0xff,0x19,0xff,0xda,0x03,0x6d,0xfe, 0xb9,0xff,0x7a,0x01,0x81,0xff,0xaa,0xfb, // 9840
0xfb,0xfe,0x24,0xfd,0xda,0xfe,0x12,0x02, 0x03,0xff,0x38,0x01,0x80,0x00,0xe1,0xf4, // 9856
0x52,0x00,0xbd,0x00,0xd3,0xfe,0x12,0x01, 0xaa,0xfe,0xe3,0xfb,0xb4,0xfe,0x21,0xfc, // 9872
0xda,0xff,0x07,0x01,0xcc,0x01,0xe2,0x00, 0x03,0x01,0xb2,0xfe,0x50,0xfb,0x13,0x01, // 9888
0x1d,0x02,0xf4,0xff,0x95,0x00,0x83,0xfa, 0xde,0x00,0x04,0xfe,0x8d,0xff,0x32,0xff, // 9904
0x4a,0xfe,0x26,0x00,0xb8,0xff,0x5d,0x01, 0x4f,0xfe,0xca,0xfb,0x95,0x00,0x98,0xfe, // 9920
0x23,0x00,0x4e,0x00,0xd1,0xfe,0x01,0xfe, 0x14,0x01,0x8c,0x00,0x9e,0xfe,0xc7,0x01, // 9936
0xcd,0x00,0xcc,0xfc,0x3a,0xfe,0x4b,0x01, 0x73,0x04,0x6a,0x00,0x4e,0xfd,0x93,0x02, // 9952
0x38,0x00,0xdf,0x02,0x41,0xf6,0x7d,0xfe, 0xf9,0xfd,0x7b,0xfe,0x7d,0xfc,0x7e,0x00, // 9968
0x3e,0x01,0x5e,0xfb,0xcf,0xff,0x1d,0x00, 0x19,0xfe,0xc5,0xfe,0xa1,0x00,0x8b,0x01, // 9984
0x2b,0xfe,0x2d,0xff,0xce,0xfb,0x1f,0x00, 0x5c,0x00,0xbe,0x00,0x98,0x00,0x47,0xff, // 10000
0xb2,0xf7,0x04,0xff,0xc1,0xfe,0xa1,0xff, 0x61,0x00,0x0b,0xff,0x47,0x01,0x90,0x00, // 10016
0x6d,0x00,0xe8,0x00,0xcf,0xfd,0x60,0x00, 0xcf,0xfe,0x2f,0xf7,0xaa,0xfa,0x87,0x00, // 10032
0x4e,0x01,0x10,0x02,0xe1,0xfc,0xfe,0x00, 0xaf,0xff,0x75,0x00,0x05,0x00,0x4f,0x02, // 10048
0x11,0xfb,0xb0,0x00,0xc5,0x01,0xc4,0x01, 0x31,0xfb,0x1f,0x01,0xcc,0x00,0x98,0xfc, // 10064
0xe5,0xfe,0x7a,0x00,0x7a,0xfe,0x47,0xff, 0xa3,0xfd,0xb5,0x03,0x80,0x01,0x5f,0x01, // 10080
0x45,0xff,0x6e,0xfc,0x28,0xff,0x3b,0x00, 0x26,0x00,0xff,0xff,0x62,0xff,0x00,0xfd, // 10096
0xbc,0xfe,0xa7,0xfe,0x45,0x02,0x3d,0xff, 0x04,0xff,0x14,0x02,0x34,0x01,0x48,0xff, // 10112
0xbf,0xff,0x3c,0xff,0x1d,0x00,0x1a,0x00, 0x12,0x00,0xe7,0xfe,0x88,0xfc,0x39,0x01, // 10128
0xfd,0xfd,0xd7,0xfd,0xf7,0xfd,0x01,0x00, 0x1f,0x00,0x11,0xff,0xbe,0x00,0xd6,0x00, // 10144
0xb3,0xff,0xf3,0xfe,0x2d,0x00,0xe6,0x00, 0x44,0xfd,0x1a,0xff,0xf2,0xfe,0x4d,0x01, // 10160
0x6c,0xfc,0xf4,0xfd,0x3e,0x00,0xb2,0xfe, 0xa3,0xfe,0xbe,0x00,0x9b,0xff,0x24,0xfe, // 10176
0xd8,0xfe,0xc1,0x00,0xa3,0x00,0xec,0xff, 0x4f,0xff,0x54,0x00,0xca,0x00,0x3d,0xff, // 10192
0x32,0xfe,0x5f,0xff,0xc7,0x00,0x2a,0x02, 0xf1,0xfe,0x7c,0xfe,0xfe,0xfe,0x27,0xfe, // 10208
0x0c,0xff,0x74,0xfe,0x51,0x01,0xaa,0x00, 0x9f,0x01,0x28,0xfd,0x7d,0x00,0x34,0xff, // 10224
0x11,0xff,0x14,0xff,0xe3,0xfe,0x23,0xfb, 0xbe,0xfe,0x6b,0x00,0x37,0xff,0x5e,0xfe, // 10240
0xc6,0xfe,0x96,0xfd,0xb0,0xff,0x48,0xff, 0xce,0x01,0xab,0xfd,0xf8,0xff,0x04,0xfe, // 10256
0x28,0x00,0x13,0x00,0xed,0x00,0xdb,0x01, 0xbd,0x00,0x14,0x01,0x0a,0xff,0x6f,0x00, // 10272
0xf1,0xff,0x44,0xfe,0x05,0xff,0xa7,0xfd, 0x45,0x01,0x89,0x03,0x70,0xff,0xbd,0x00, // 10288
0x71,0x00,0x33,0xff,0xfe,0x00,0x1d,0xff, 0x6e,0x00,0xf8,0x00,0x11,0x00,0x79,0x00, // 10304
0xd2,0x00,0x0d,0x00,0x99,0xfb,0xe9,0x00, 0xc0,0xff,0x61,0xff,0x57,0xfe,0x24,0x00, // 10320
0xdd,0x00,0x0c,0x00,0xda,0xff,0xee,0xfe, 0x05,0x00,0xbf,0xfe,0xab,0xff,0x78,0xff, // 10336
0x46,0x00,0x68,0xfe,0x87,0xff,0x88,0xff, 0x31,0x01,0x3f,0xff,0xf6,0xff,0x22,0x00, // 10352
0x46,0xfe,0xb1,0xfe,0x93,0x00,0xf2,0xfe, 0x02,0x00,0xe9,0xff,0x98,0xff,0x90,0xff, // 10368
0xd8,0xff,0xe3,0xff,0x60,0x01,0x55,0x00, 0xfe,0xfb,0xde,0x00,0xc1,0xfd,0x87,0xff, // 10384
0xde,0x00,0x61,0xff,0x72,0xff,0x5d,0xff, 0xed,0xff,0xf7,0x00,0x4b,0xfe,0xe6,0xff, // 10400
0xe2,0xfe,0x9d,0x00,0xbd,0xff,0xa3,0xfb, 0x4a,0x00,0x50,0x00,0xab,0xff,0xf7,0xff, // 10416
0xc3,0xfb,0xbb,0xfc,0xdd,0xfb,0x3b,0xfa, 0x58,0x01,0xbb,0xfd,0x76,0x00,0xf5,0xff, // 10432
0x28,0x02,0xc7,0xfe,0x48,0x00,0x1c,0xfa, 0xd5,0x01,0xfb,0xfe,0xc5,0x00,0x22,0xfa, // 10448
0x8a,0x01,0xda,0xff,0x82,0xfe,0x06,0x00, 0xe1,0xfe,0xdc,0xff,0x7c,0xfe,0xe3,0xfe, // 10464
0x24,0xff,0xd8,0xfc,0x13,0xff,0x70,0x00, 0xeb,0x00,0x86,0x00,0x62,0x01,0x8f,0xf7, // 10480
0x08,0x01,0xaf,0x00,0x72,0x00,0x07,0xff, 0x18,0xf8,0x7c,0x01,0xe8,0xff,0x14,0x01, // 10496
0x2c,0xfc,0x89,0xff,0x3e,0x01,0x9b,0x00, 0x02,0xff,0x68,0xfe,0x2b,0x00,0x40,0x03, // 10512
0x5c,0xff,0xec,0xff,0x14,0x01,0xdf,0x01, 0x6d,0xfe,0xc1,0x00,0x15,0x02,0x20,0xff, // 10528
0x62,0x00,0x03,0x00,0xf4,0xfe,0xed,0x00, 0xa2,0xff,0x6d,0xfe,0x16,0xfa,0xc6,0x00, // 10544
0x19,0x01,0x69,0x01,0xde,0xfe,0xa9,0xfe, 0xd9,0xfa,0xe6,0xfd,0x6a,0xff,0x1b,0x01, // 10560
0x98,0x00,0x4a,0x02,0xfd,0x00,0x0d,0x01, 0xad,0xfe,0xa2,0x01,0x24,0x00,0xde,0x00, // 10576
0x00,0xff,0x21,0xff,0xf4,0xff,0xd7,0xff, 0xf3,0x00,0x2b,0x00,0x0b,0x02,0x11,0xfe, // 10592
0xa2,0x01,0xdb,0x01,0x4e,0x01,0x51,0x02, 0x77,0xfd,0x38,0x00,0xd1,0x01,0x9e,0xfc, // 10608
0x46,0x01,0xdc,0xfd,0xab,0xfc,0xfc,0xfd, 0x54,0xff,0x63,0x00,0x77,0x00,0x61,0xfe, // 10624
0x59,0x01,0x0c,0xfd,0x52,0x01,0xab,0xfd, 0xe2,0xfe,0x2c,0x00,0xe3,0xf9,0x23,0x00, // 10640
0xf7,0xfe,0xc7,0xfc,0x27,0x01,0xa9,0xfe, 0xbc,0xf8,0x45,0x01,0x09,0x00,0xf2,0xff, // 10656
0xaf,0x01,0xd1,0x05,0xf6,0x01,0xaa,0x00, 0x0a,0xff,0x53,0x00,0x5e,0x00,0x36,0x00, // 10672
0x2d,0x02,0x0d,0x01,0x93,0xff,0xdf,0x00, 0x71,0x00,0xd8,0xfe,0x7a,0x01,0x41,0x01, // 10688
0x88,0xfd,0x68,0x01,0xec,0xfd,0xcd,0xff, 0x91,0xfe,0x80,0xff,0x27,0xfe,0x4d,0x01, // 10704
0x17,0x01,0xf6,0xfc,0xfd,0xff,0x64,0xfd, 0x0e,0xfe,0xdd,0x00,0xb6,0xf6,0x54,0xfb, // 10720
0xbe,0x02,0x0e,0x01,0xa4,0x00,0x93,0xff, 0x7c,0x02,0xd7,0xff,0x37,0xff,0xcd,0x01, // 10736
0x22,0xff,0xa3,0xff,0xc3,0xf9,0x5f,0xfe, 0xee,0x01,0x1e,0x02,0x7a,0xfe,0xc0,0x00, // 10752
0x00,0x00,0x84,0x02,0x1d,0x01,0x1c,0xff, 0xc3,0xfe,0xec,0x00,0xae,0x00,0x83,0x01, // 10768
0xff,0xff,0xc2,0x05,0xdf,0x00,0xe2,0x00, 0x8c,0xfe,0x44,0x04,0x9b,0xfa,0x08,0x01, // 10784
0x68,0x01,0x6d,0xff,0xb5,0xff,0xb0,0x03, 0xad,0x02,0xfa,0xfd,0xa3,0xff,0x08,0x03, // 10800
0xd2,0xfd,0xe7,0x01,0x38,0x00,0x2f,0x01, 0x12,0xfc,0x3f,0x01,0x5a,0xff,0xc3,0xff, // 10816
0xe0,0x00,0x09,0x00,0x8b,0xff,0x52,0x00, 0x3c,0xfb,0xc3,0x00,0xc1,0xf9,0xe6,0xfc, // 10832
0xb7,0x00,0xb2,0xff,0x46,0xff,0x39,0x02, 0x8a,0x01,0x88,0xfd,0x0c,0x03,0xbb,0x00, // 10848
0xc4,0x00,0xed,0xfc,0xc1,0xfc,0xa8,0x02, 0x6d,0xfe,0x4d,0x03,0xa2,0xff,0xf6,0xfe, // 10864
0x06,0xfb,0x4e,0x02,0xea,0xff,0x1c,0xfe, 0x61,0xff,0x02,0x00,0x92,0x00,0xb0,0xff, // 10880
0x32,0x00,0xd6,0x00,0xa6,0x03,0xc5,0x00, 0x68,0x03,0xed,0x01,0x8b,0xff,0x05,0x00, // 10896
0x50,0xfd,0x16,0x00,0x76,0xfe,0xf3,0x00, 0xb4,0x00,0xa8,0x01,0x4d,0x00,0x48,0x00, // 10912
0xb8,0x01,0x32,0xfd,0xbb,0x00,0x9b,0x00, 0xfe,0xff,0xe3,0xff,0x70,0xff,0x3c,0xfb, // 10928
0x34,0x01,0xaf,0x01,0xdc,0xfe,0xe3,0xff, 0xe3,0x00,0xad,0xff,0x3d,0x00,0x4d,0x00, // 10944
0x07,0xfa,0xa8,0x02,0xb5,0x00,0xe9,0xff, 0x68,0xff,0xb4,0xff,0x0b,0x00,0x39,0x00, // 10960
0x44,0xfe,0xe9,0xfd,0xe7,0xff,0x90,0x00, 0x8f,0x02,0x28,0xfb,0x04,0xfc,0x76,0xff, // 10976
0x8d,0xfd,0xaa,0xff,0x19,0xfe,0x7e,0x02, 0x13,0xfa,0x41,0x01,0x39,0xfe,0x7f,0xfe, // 10992
0xc4,0xfe,0xf9,0xfe,0x33,0x00,0x7c,0xff, 0xc1,0xfc,0xfa,0xfe,0xe7,0xfe,0x2f,0x00, // 11008
0x09,0xff,0x73,0xff,0x7b,0xff,0xd0,0xfe, 0x12,0x01,0x08,0x00,0x9e,0x00,0x8b,0x00, // 11024
0x28,0xfe,0xf6,0x03,0x7c,0x01,0xac,0xfd, 0x58,0x01,0xf5,0xfa,0x1c,0x00,0x58,0x00, // 11040
0x80,0xff,0xbd,0xff,0x65,0xff,0x09,0xff, 0xa8,0xfc,0xf6,0x00,0x34,0x00,0xb5,0xff, // 11056
0x4d,0x01,0xac,0xfc,0x03,0x03,0x5b,0x02, 0x9b,0x01,0x76,0xff,0x16,0xff,0x07,0x02, // 11072
0x31,0x00,0xdf,0xfa,0x2a,0x01,0x2f,0x00, 0xad,0x03,0xf1,0x00,0x1c,0xfe,0xbc,0xf3, // 11088
0x13,0x01,0xe4,0xf9,0xd3,0xfd,0xfc,0xfd, 0xf4,0xfd,0x33,0x00,0xf6,0xf9,0x20,0x00, // 11104
0x04,0x00,0x12,0xff,0x64,0x03,0xea,0x00, 0xf3,0x00,0xa1,0xfe,0x41,0x00,0xa1,0x00, // 11120
0x0d,0xff,0x3c,0x00,0x56,0x01,0xaa,0xff, 0xc2,0xff,0x0d,0x01,0xc5,0x00,0x1d,0xfe, // 11136
0x78,0x00,0xbe,0x01,0xee,0xff,0x2d,0x00, 0x11,0xff,0x1b,0xfd,0x63,0x02,0xea,0x01, // 11152
0x28,0xff,0x68,0x03,0xe5,0x00,0x98,0xfd, 0xc2,0xfd,0x39,0x01,0xbe,0xff,0x39,0x04, // 11168
0xaf,0xfc,0xc8,0xff,0x35,0x00,0x9f,0xfe, 0x65,0xff,0x84,0xff,0x99,0xfe,0x3b,0xfd, // 11184
0x67,0x00,0xe7,0x00,0xfd,0xfe,0xaf,0xfe, 0x3d,0x01,0x00,0x00,0xd3,0xff,0x4f,0x00, // 11200
0x78,0x00,0x22,0xfb,0x22,0xfd,0xc1,0xff, 0x98,0xfd,0x0f,0x00,0xfa,0xff,0x83,0x00, // 11216
0x40,0xfe,0xef,0x00,0xe3,0xff,0x76,0x01, 0xfb,0x00,0xff,0xfb,0x40,0xff,0x24,0x01, // 11232
0x62,0xff,0xb7,0xf6,0xe2,0xff,0xa0,0x00, 0x3b,0xfe,0x45,0x02,0x25,0x02,0x75,0x01, // 11248
0x49,0xfe,0x91,0xff,0x53,0xff,0x7d,0x00, 0xcf,0xff,0xb3,0x00,0x8c,0xf6,0xd4,0xff, // 11264
0xd2,0x01,0x5e,0x00,0x96,0xff,0x29,0x01, 0x95,0xff,0xfe,0xff,0x4b,0xfe,0x91,0x01, // 11280
0xf5,0x00,0xa4,0x00,0x76,0xf8,0x3b,0x00, 0x66,0xfe,0x8b,0x00,0x7e,0xfe,0xdb,0x02, // 11296
0xde,0xfe,0x43,0x01,0x0e,0x01,0x7d,0x00, 0x73,0xff,0xe5,0xfe,0x91,0x02,0x5a,0xfe, // 11312
0x65,0x00,0x55,0xff,0xf2,0x01,0x08,0x01, 0xde,0xff,0xd5,0xfb,0x89,0x01,0x2f,0xff, // 11328
0x8f,0xfc,0x93,0x03,0x15,0xfe,0xf5,0xfd, 0x22,0xff,0x21,0x01,0xc8,0x00,0xfc,0xfc, // 11344
0x71,0xfe,0x9b,0xfd,0x13,0x01,0xe4,0x00, 0xef,0xff,0x4c,0x01,0x9d,0x01,0xc9,0x00, // 11360
0x1d,0xfe,0x9e,0x02,0xf3,0xff,0x70,0xff, 0x34,0x00,0xe6,0x01,0x51,0x00,0x51,0x02, // 11376
0x08,0x03,0x10,0x01,0xac,0xfc,0x50,0x00, 0x38,0x01,0x2d,0x00,0xa8,0xfe,0x9a,0x00, // 11392
0xaf,0xfa,0x18,0xff,0x94,0xfe,0x62,0x00, 0x2d,0xfa,0x2e,0x01,0xd1,0xf9,0x82,0xfe, // 11408
0x07,0xff,0x09,0x03,0xe7,0x00,0x1c,0x01, 0x93,0xff,0x71,0xfe,0xe2,0x00,0x5e,0x00, // 11424
0x64,0x00,0x9a,0x00,0xa3,0x00,0x72,0x01, 0x07,0xff,0xeb,0xfd,0xe5,0x00,0xb3,0x00, // 11440
0x54,0x00,0xe7,0x00,0x1a,0x01,0xc1,0xfd, 0x6c,0xff,0x50,0x00,0x5e,0x00,0x73,0x00, // 11456
0xa9,0x02,0x33,0x01,0x88,0xfd,0x48,0x01, 0x49,0x01,0x9e,0xfe,0xf3,0xfc,0x76,0x00, // 11472
0x62,0x00,0x0b,0x02,0x3b,0x00,0xb3,0xfe, 0xd9,0x03,0xa3,0x02,0x91,0xfe,0x96,0xfd, // 11488
0xfb,0xfd,0xc8,0x01,0x97,0xff,0x7c,0x01, 0x0e,0x00,0x6b,0xfc,0x86,0xfb,0x00,0xfc, // 11504
0xe1,0xff,0x3f,0x00,0x15,0xfa,0xc6,0xff, 0xd9,0xfc,0xe0,0xfd,0x72,0xfd,0x77,0x00, // 11520
0x41,0xfe,0xc8,0x00,0x67,0xfd,0xc3,0x03, 0x66,0xfe,0x6c,0x00,0x92,0x01,0x76,0xf9, // 11536
0xd8,0x00,0x2b,0xff,0x1c,0xfe,0xc8,0x00, 0xc8,0xfe,0x72,0xff,0xc5,0x01,0x12,0x03, // 11552
0xaa,0x00,0x5b,0xff,0xee,0xfd,0x12,0x01, 0x30,0x01,0xc0,0xfe,0x16,0xfc,0x21,0x03, // 11568
0x78,0xfd,0xbe,0x00,0xd5,0x00,0xee,0x02, 0x19,0x02,0x38,0x01,0x73,0xff,0x1f,0x02, // 11584
0xaf,0x00,0xe8,0xf7,0x39,0xff,0xf3,0x00, 0xea,0x00,0x4d,0x02,0xda,0x00,0xb4,0x01, // 11600
0x4a,0x00,0xd2,0xff,0x66,0x00,0xdc,0x01, 0xc7,0xfe,0x8c,0x01,0x09,0xfe,0xb3,0xfe, // 11616
0xd2,0xff,0x97,0xfe,0x55,0x02,0x69,0x00, 0x3f,0xf9,0xde,0x01,0xb1,0x02,0x38,0x00, // 11632
0x6a,0x00,0xcb,0xfc,0x3c,0xfd,0x37,0x01, 0xf9,0xfc,0x76,0x03,0xcd,0xfc,0xc9,0xfd, // 11648
0x26,0xfe,0x68,0x02,0x68,0x00,0x5b,0x02, 0x87,0x01,0x8d,0x02,0xb8,0xff,0xfe,0xff, // 11664
0xed,0x00,0x3d,0xff,0x39,0x01,0x13,0x00, 0x2b,0xfd,0x03,0x00,0x39,0xff,0x73,0xfc, // 11680
0x13,0xfd,0x09,0x03,0x13,0xfc,0x8e,0x00, 0x7d,0xfd,0x96,0xfe,0xa9,0xfe,0x11,0x00, // 11696
0x92,0x02,0x24,0xff,0xa6,0x00,0x09,0xff, 0x08,0x02,0xa3,0xff,0x31,0x02,0x10,0x00, // 11712
0xda,0x01,0xb0,0xfd,0x76,0x01,0xd6,0x00, 0x01,0xfd,0xb7,0xfe,0xcf,0xff,0x66,0x00, // 11728
0x96,0xff,0x79,0xff,0xf2,0xfb,0xd9,0x00, 0x8f,0xfd,0xfa,0x01,0x96,0xfe,0xe0,0xff, // 11744
0x96,0xfe,0x83,0xfe,0x25,0xff,0xed,0xff, 0xb5,0x02,0xf6,0x00,0x57,0x00,0x1e,0x00, // 11760
0x46,0xfd,0x48,0xfd,0x6e,0xfd,0x0e,0x00, 0xf9,0xff,0x37,0x01,0x37,0x01,0x10,0x00, // 11776
0x20,0x00,0xb6,0x00,0xdf,0xff,0x6a,0xfb, 0x9f,0xfe,0xb4,0x04,0x41,0x01,0x2d,0xff, // 11792
0xcf,0xff,0x28,0xff,0xe5,0xff,0xa1,0x01, 0x31,0x01,0xb4,0xfe,0xe8,0xfd,0x04,0x01, // 11808
0xbf,0xfb,0xf4,0xfc,0x3c,0xfe,0x4e,0x00, 0x48,0xff,0x9a,0xfe,0x1f,0x00,0xf4,0x00, // 11824
0xed,0xfe,0xb0,0xff,0x00,0x01,0xc5,0x00, 0xde,0xfe,0x98,0x00,0xe6,0xfe,0xf7,0xff, // 11840
0x4c,0xfe,0xd4,0x00,0xd2,0xff,0x28,0xfd, 0x01,0x01,0x39,0xfd,0x9f,0xff,0x25,0xfe, // 11856
0x9e,0xff,0xab,0x00,0x7e,0xff,0x1d,0x01, 0x20,0x00,0x28,0xfd,0xfa,0xfd,0x29,0x00, // 11872
0xb9,0x01,0xa3,0x00,0xd6,0xff,0xf9,0x01, 0xad,0xff,0x88,0xfa,0xeb,0xff,0x9f,0xfe, // 11888
0x5c,0xfe,0x73,0xfc,0x97,0x02,0xe1,0xff, 0xed,0xfe,0xb0,0x01,0x8e,0xfa,0x88,0xfe, // 11904
0xf5,0xfd,0xaa,0xff,0x64,0xff,0x45,0xfe, 0xed,0xff,0x84,0x00,0x68,0xff,0x74,0x01, // 11920
0x47,0xfc,0x64,0xfe,0xbb,0xff,0x3e,0xfb, 0x91,0xff,0x44,0xfe,0x1f,0x00,0x56,0xfc, // 11936
0x7b,0xff,0x06,0xff,0xc2,0x00,0x61,0xff, 0xd4,0xff,0xaa,0xff,0x9a,0xfe,0x76,0xff, // 11952
0xbb,0x01,0xe3,0xfe,0x25,0x00,0xc4,0xff, 0x31,0xff,0xae,0xfd,0x33,0xfe,0x63,0x01, // 11968
0x3a,0x00,0xfa,0x00,0xde,0x00,0x53,0x00, 0x66,0xfc,0xb5,0xfd,0x39,0x01,0x92,0xff, // 11984
0xa9,0xff,0x78,0xfd,0x8e,0xff,0x6a,0xfc, 0x21,0x01,0x02,0xfb,0xac,0xfd,0xe8,0xfe, // 12000
0x5d,0x01,0x40,0xff,0xa9,0x00,0x16,0x00, 0x32,0x02,0x71,0x01,0x08,0xfc,0x9a,0xfe, // 12016
0x3c,0x00,0x71,0xff,0xe4,0x00,0x6d,0x01, 0xc9,0xff,0x07,0x00,0x35,0xff,0x4f,0xff, // 12032
0x3b,0x00,0xd0,0xff,0x09,0x00,0x65,0x01, 0xf7,0x01,0xc7,0xfc,0x0f,0x00,0x1e,0x00, // 12048
0xb5,0xff,0xf0,0xff,0x21,0x01,0x5b,0xfd, 0xdf,0x00,0x04,0x00,0x61,0xfd,0xf1,0xff, // 12064
0xa9,0xfe,0x62,0x00,0xe1,0xfc,0xbf,0x01, 0xd8,0x01,0x2f,0x00,0x2f,0x00,0xae,0xff, // 12080
0xc6,0xfe,0xfa,0xff,0xb5,0xfe,0x90,0xff, 0x14,0xff,0x3f,0x02,0x49,0x01,0x2c,0x01, // 12096
0xec,0xfd,0x7c,0x00,0xf5,0xfe,0xce,0xfc, 0x8e,0x00,0x27,0xfb,0x51,0x00,0xd6,0xfd, // 12112
0xf5,0xfd,0x08,0xfe,0xb5,0x00,0x11,0xff, 0x9c,0x01,0xe9,0xff,0x65,0x00,0xc5,0x00, // 12128
0x24,0x00,0xf6,0xff,0x1d,0x02,0x90,0xff, 0x12,0x02,0x2b,0xfa,0xc3,0x01,0xdf,0x01, // 12144
0x01,0x00,0x59,0xff,0x61,0x01,0x4e,0xfe, 0xfc,0xfd,0xeb,0xff,0x9a,0xfb,0x9e,0xfe, // 12160
0x9e,0xfe,0x5c,0x02,0x2c,0xfd,0x8a,0x01, 0x3f,0x00,0x4a,0x04,0x65,0xff,0x56,0x00, // 12176
0x79,0xff,0x28,0x01,0x5b,0xff,0xad,0x00, 0xd3,0x00,0xb9,0xff,0x56,0xff,0x5b,0x00, // 12192
0xe5,0x01,0x90,0x00,0x7f,0x00,0xc3,0xfe, 0xf2,0xff,0xd7,0x01,0x0c,0x01,0xcb,0x00, // 12208
0xd0,0x00,0x78,0x00,0x9e,0xfb,0xf7,0x00, 0x8f,0x00,0xed,0xfe,0x08,0xff,0xf9,0xfc, // 12224
0xf0,0xfc,0x00,0x02,0x9a,0xfe,0x74,0xfe, 0x4d,0x00,0x79,0x01,0x07,0x00,0xff,0xfd, // 12240
0xae,0x01,0x57,0xff,0x77,0x00,0x92,0xfe, 0x8e,0x03,0xa6,0x02,0x0e,0x01,0xca,0x01, // 12256
0x60,0x00,0x18,0x00,0x1e,0x00,0x2a,0x01, 0xac,0xfe,0x7a,0x01,0xeb,0xff,0x67,0xfd, // 12272
0x6c,0xff,0x39,0xff,0x18,0xfc,0x21,0x01, 0x78,0x00,0x8f,0x02,0x8c,0x01,0xa7,0xfb, // 12288
0x65,0xff,0x0a,0x00,0xaa,0xfd,0x9b,0xff, 0x94,0xff,0xce,0xff,0x58,0x00,0x24,0x03, // 12304
0xae,0xfe,0x2c,0xfe,0x74,0xff,0xf8,0xfb, 0xcf,0x00,0x90,0x05,0x84,0xf9,0x91,0xfd, // 12320
0x54,0xff,0x54,0x01,0x34,0x00,0x95,0xfd, 0x77,0xff,0xc0,0xfc,0x66,0xfe,0xfe,0xff, // 12336
0x43,0xfe,0x3d,0xf9,0x9a,0xfe,0xe5,0xfa, 0xee,0xfb,0xf4,0x00,0x37,0x01,0x03,0xff, // 12352
0x8c,0x02,0xb3,0x01,0x5a,0x02,0x18,0xfd, 0xfe,0xfe,0xb3,0xff,0x2c,0x01,0xde,0x03, // 12368
0x1b,0xfe,0xc2,0x01,0x41,0x00,0x63,0xff, 0x98,0x00,0xac,0x00,0x25,0x01,0xfa,0xfe, // 12384
0xed,0xfe,0x6d,0x01,0x7d,0x00,0x89,0xff, 0xd2,0xff,0x1c,0x00,0xe2,0xfd,0x60,0x00, // 12400
0xe4,0xfe,0xd5,0xfc,0x77,0x01,0x3b,0x01, 0xd5,0xff,0x09,0xfe,0xbd,0x00,0x1e,0x02, // 12416
0x3a,0xfd,0xa7,0xfc,0x79,0x01,0x47,0x00, 0xee,0xfc,0xc5,0x00,0x13,0xf9,0x2b,0xf8, // 12432
0x9c,0x00,0x48,0xfc,0x14,0xfe,0xcb,0x00, 0x1f,0xfe,0x39,0x00,0xdf,0xff,0x0e,0x00, // 12448
0xfe,0xff,0xd6,0xff,0xbd,0x03,0xc3,0x00, 0x7a,0x00,0x20,0x03,0xd9,0xfc,0x0d,0x01, // 12464
0x59,0xfd,0x7f,0x00,0x98,0xfe,0x5e,0x01, 0xbd,0xfe,0x9a,0x00,0xad,0xff,0x0e,0x02, // 12480
0xf6,0xfd,0x1d,0x00,0xf4,0xff,0xad,0x01, 0x02,0xff,0xc6,0x00,0xd2,0xff,0xd2,0x00, // 12496
0x2a,0x01,0xbd,0x00,0xec,0x00,0x38,0xfe, 0x40,0xfe,0x1c,0x01,0x8b,0x01,0x83,0x01, // 12512
0x92,0xff,0x04,0xff,0x39,0x00,0xe1,0xff, 0xde,0x01,0x06,0xff,0x4f,0x01,0x4b,0x01, // 12528
0x72,0x00,0x40,0x01,0xa1,0xff,0xa2,0x00, 0x33,0xfd,0xad,0x00,0x25,0x00,0x7a,0x00, // 12544
0xff,0xfd,0xbe,0x00,0xa4,0x00,0x68,0xfd, 0xf7,0xf9,0xa5,0xfe,0xfb,0x00,0x63,0xfd, // 12560
0x65,0xfc,0x7c,0x01,0xf0,0x00,0xea,0xfe, 0x68,0x01,0x90,0xff,0x43,0xfe,0xfa,0xfe, // 12576
0xc9,0xff,0x19,0xfd,0x2b,0x00,0x1e,0x01, 0x56,0xfe,0x97,0xfd,0xb9,0x00,0xdc,0xfe, // 12592
0xd1,0xfd,0xe0,0xf3,0x5f,0x00,0x25,0xfc, 0xd0,0xfe,0xdb,0xff,0x17,0xfe,0x7b,0x00, // 12608
0x89,0xff,0x07,0xff,0x61,0xff,0x17,0x01, 0x88,0xfe,0x4f,0xff,0x14,0x01,0x8f,0xfe, // 12624
0x2a,0x02,0x2e,0x00,0x6d,0x02,0xeb,0x00, 0xda,0xfa,0xfa,0xfc,0x0d,0xff,0x41,0x00, // 12640
0xe6,0xfb,0xe8,0x00,0x25,0xff,0xd6,0xfd, 0xa4,0x03,0x39,0xff,0xdf,0xfe,0xe5,0xf9, // 12656
0xfd,0x01,0x9b,0xff,0xfc,0xfa,0xfe,0xff, 0x41,0x00,0xc4,0x01,0x8c,0xfe,0xa6,0xff, // 12672
0x73,0xff,0xea,0x00,0xcb,0xfe,0x68,0x01, 0xa8,0xfd,0x6c,0xff,0xf1,0xf4,0x03,0xfe, // 12688
0x8c,0xfe,0x6c,0xff,0xde,0x00,0xae,0x01, 0xa4,0x00,0xd4,0x00,0x5e,0x01,0x25,0xfe, // 12704
0xcb,0xff,0xbd,0xfe,0x93,0xff,0x24,0x03, 0x7c,0x00,0x21,0xff,0x21,0x01,0x65,0x01, // 12720
0x06,0x01,0xca,0xfe,0xd1,0xfd,0x4d,0xfc, 0xec,0xfe,0xb6,0x01,0x59,0xff,0x74,0xfc, // 12736
0xf8,0x01,0xef,0x01,0xa4,0x03,0x0e,0x00, 0x32,0x01,0xe3,0xff,0x6d,0xfb,0xdc,0x00, // 12752
0xca,0xff,0x62,0xfb,0xa9,0xfc,0x3f,0x00, 0xc2,0xfd,0x16,0x02,0x13,0xfa,0xe4,0x01, // 12768
0x36,0xff,0xec,0x00,0x30,0x00,0x84,0x01, 0x7f,0x01,0xe3,0x02,0x93,0xff,0x0d,0x00, // 12784
0xa9,0xff,0x2e,0x00,0x16,0xfe,0x87,0x01, 0xfb,0xfe,0x79,0x00,0x6d,0xff,0x24,0xf6, // 12800
0xee,0xff,0x6d,0xff,0x48,0xfd,0x64,0xfd, 0xa4,0xf8,0x14,0xff,0xf8,0xfc,0xb3,0x00, // 12816
0x52,0x01,0x79,0x01,0xcc,0xff,0x4d,0x01, 0x47,0xfe,0x7a,0xff,0x8f,0xf9,0xc3,0x00, // 12832
0x93,0x02,0xb3,0x01,0x62,0x00,0x63,0x02, 0x54,0xfc,0xe7,0xfb,0x76,0xff,0x3a,0x02, // 12848
0x77,0xfe,0xdc,0x00,0x39,0x02,0x84,0x01, 0x81,0x01,0xc1,0x00,0x60,0x01,0xb1,0xfa, // 12864
0xc0,0xfd,0xa1,0xfc,0x6d,0xfe,0xda,0x00, 0xc1,0xff,0x5f,0x00,0xee,0x01,0x55,0x00, // 12880
0x9d,0xfe,0x5a,0xff,0x6b,0xff,0x46,0xfb, 0xe2,0x00,0xf9,0xff,0xc1,0xfe,0xe5,0xfe, // 12896
0xfd,0xfe,0x0f,0x01,0x17,0xf8,0x3d,0xfb, 0xab,0x01,0x54,0xfd,0x61,0xff,0x38,0xff, // 12912
0x53,0x01,0x05,0xff,0xa7,0xfe,0x32,0x04, 0x79,0x01,0x75,0x01,0xea,0xfc,0xff,0x02, // 12928
0xdd,0xfd,0x54,0x00,0x0f,0x00,0x3d,0x01, 0x73,0x01,0x12,0xfe,0xa9,0x00,0xc2,0xff, // 12944
0x72,0x01,0xe5,0xfe,0x2c,0x01,0xb9,0x01, 0xe2,0x00,0x04,0xfe,0xe1,0x00,0x34,0x01, // 12960
0xfa,0x00,0x2d,0x01,0x47,0x02,0xe0,0xff, 0x3f,0xfd,0xf0,0xfd,0xde,0x01,0x7b,0x01, // 12976
0x02,0x00,0xb7,0x02,0x2f,0x00,0xdb,0xff, 0x70,0xfe,0x64,0xff,0x1f,0xfe,0x25,0xfe, // 12992
0x87,0x00,0x4b,0x00,0x9b,0x01,0xec,0x03, 0xaa,0x02,0xe1,0x01,0x9a,0x00,0x61,0x02, // 13008
0x0b,0x03,0xd2,0xfe,0x7e,0xff,0xa8,0x00, 0x83,0xfd,0xde,0x02,0x74,0x00,0x78,0xfd, // 13024
0x53,0x01,0xb1,0xfe,0xc5,0x00,0xf1,0xfc, 0xaf,0x03,0x4d,0x01,0x8b,0xff,0xdb,0x01, // 13040
0x5f,0xfd,0xaa,0x01,0xbc,0x00,0xd5,0xff, 0xe3,0xfe,0x02,0x06,0x04,0x01,0x31,0x04, // 13056
0xf0,0x02,0xdb,0xfd,0xac,0x00,0xf0,0xff, 0xcb,0x01,0xa2,0x01,0xff,0xfd,0x29,0xff, // 13072
0x89,0xfc,0x75,0xff,0xaf,0xff,0xff,0xfe, 0xa5,0x02,0xde,0xff,0x7d,0x00,0x49,0xff, // 13088
0xf7,0x00,0xc8,0xfe,0xf5,0x02,0xec,0x00, 0xa7,0xfe,0x3b,0xfe,0xa6,0x00,0xfe,0x00, // 13104
0x09,0x01,0xbe,0xff,0xd0,0x01,0xb7,0xfc, 0x9e,0x00,0x16,0xfa,0x09,0xff,0x6b,0x01, // 13120
0x4a,0x01,0x9b,0x02,0x6d,0x00,0xe9,0xfc, 0x89,0x03,0x47,0x00,0xfc,0x00,0xf7,0x00, // 13136
0xc5,0x01,0x68,0xff,0xe9,0xfe,0xdb,0xfe, 0xa2,0x01,0x12,0xfe,0x09,0x00,0x11,0xfd, // 13152
0x28,0x00,0x89,0xff,0xd0,0xfa,0x48,0xff, 0x95,0xfe,0xb1,0x01,0xca,0xfe,0x4b,0x01, // 13168
0x11,0x01,0xf1,0xff,0x62,0xff,0x2b,0x01, 0xe3,0x00,0xef,0xfb,0x53,0xfd,0x2f,0xfe, // 13184
0xed,0xff,0xd0,0x01,0xb2,0x00,0x3a,0x00, 0x92,0x01,0xe2,0x01,0x61,0xff,0x8f,0x00, // 13200
0x17,0x01,0x30,0x00,0x54,0x04,0x46,0xff, 0x5a,0x03,0xa9,0x01,0xa7,0xfc,0x60,0x00, // 13216
0xee,0xfe,0xf8,0xff,0xa4,0xfd,0x6a,0xfc, 0x92,0xfe,0xcf,0x00,0x8b,0x00,0x51,0xff, // 13232
0x58,0x01,0xcb,0x00,0x4f,0x00,0x0f,0xfe, 0x48,0xfe,0xce,0x00,0x19,0xff,0xb4,0x01, // 13248
0x39,0x01,0xf7,0xfe,0x9a,0x00,0x73,0x01, 0x0f,0x00,0x53,0xff,0xa3,0xff,0x14,0xff, // 13264
0x38,0x01,0x42,0x00,0x44,0xfe,0xc9,0xfd, 0xf4,0x01,0x22,0x01,0x42,0xff,0x87,0xfb, // 13280
0x29,0xff,0x8f,0x00,0x92,0x01,0x9c,0xff, 0xfa,0xff,0x2a,0x04,0x3b,0xfe,0xc2,0x00, // 13296
0x33,0x00,0x41,0x01,0xa8,0xfd,0xca,0x01, 0x87,0xfd,0x0e,0x01,0xb1,0xfe,0xb7,0x00, // 13312
0xa8,0x02,0x10,0xfd,0x03,0x01,0xae,0x00, 0xf7,0xff,0x4c,0x02,0xf7,0xff,0x71,0x00, // 13328
0x6e,0x00,0x0a,0x01,0x46,0x01,0x51,0x01, 0x37,0x00,0x8c,0xff,0x3a,0xfd,0x5a,0xff, // 13344
0x98,0x00,0x89,0xff,0x12,0x01,0x27,0x00, 0x53,0x00,0x5a,0xff,0xa0,0x00,0xfa,0x00, // 13360
0xec,0x00,0xdb,0xff,0x83,0xff,0x97,0xfd, 0x00,0x01,0x74,0x01,0x11,0x00,0x67,0xff, // 13376
0xe9,0xfe,0x0f,0x00,0x3d,0x01,0xbc,0x00, 0xdc,0x00,0xca,0xff,0x6e,0x02,0xdc,0xfe, // 13392
0xe7,0xfe,0xb2,0xfd,0xc2,0xff,0xf9,0xfe, 0x13,0xff,0xa5,0x01,0xc0,0xff,0x0d,0xfb, // 13408
0xea,0x01,0x1b,0x00,0x06,0xfc,0xde,0xfb, 0xfe,0xff,0x98,0xfe,0x12,0xfe,0x0b,0x00, // 13424
0x81,0x00,0xc5,0xfe,0x69,0x02,0x47,0x01, 0x59,0x00,0x0c,0xff,0x8a,0xff,0xea,0xff, // 13440
0xc8,0x04,0xe2,0xfd,0xea,0x00,0x70,0xff, 0x75,0x00,0xbe,0x00,0xb2,0xff,0x9f,0x00, // 13456
0x4f,0xfa,0x41,0x01,0x0d,0xff,0xee,0x00, 0x5a,0x00,0x62,0xff,0xef,0x00,0xad,0x00, // 13472
0xab,0x01,0x81,0x01,0xd8,0xfe,0x0a,0xff, 0x0d,0x03,0x8e,0x02,0x1d,0xfe,0x1e,0x02, // 13488
0xf8,0xfc,0x51,0xff,0xda,0x05,0x03,0x01, 0xed,0x01,0x6a,0x00,0xd9,0x00,0xd1,0x00, // 13504
0xab,0xf9,0xd4,0x00,0xc0,0xfe,0x1b,0xfe, 0xe8,0xfe,0x3b,0xff,0xd8,0x03,0xa7,0x00, // 13520
0x90,0xfc,0xcd,0xfe,0x45,0xfe,0x1a,0x00, 0xd7,0xff,0x3a,0xfb,0xbe,0x00,0x90,0x02, // 13536
0xb8,0xff,0x1c,0x00,0x36,0x00,0xd1,0xfc, 0xbc,0x00,0x5d,0xfd,0xb7,0xff,0xb6,0xfe, // 13552
0xfc,0xfc,0x76,0xfa,0x3c,0x01,0xda,0x00, 0xe0,0x00,0xd0,0xfc,0x1f,0x00,0x08,0xfd, // 13568
0x5f,0xff,0xdb,0xfe,0x9e,0x01,0x5d,0x00, 0xcb,0x00,0x9e,0x01,0x3d,0xfa,0x19,0x00, // 13584
0x28,0xfe,0xe3,0xff,0x88,0x01,0x65,0x01, 0x15,0x01,0xbe,0xff,0x34,0x02,0x3c,0xff, // 13600
0xae,0xfd,0x37,0xff,0x31,0xff,0xf7,0x03, 0xcd,0xfe,0xa1,0x01,0x41,0x00,0x65,0x01, // 13616
0xe6,0x00,0x6c,0xff,0xdc,0x00,0x5a,0xff, 0x29,0xff,0x3f,0x01,0xe9,0xfd,0x64,0x00, // 13632
0x61,0x00,0xa9,0xff,0xd5,0x00,0xc7,0x01, 0xe4,0x03,0x74,0xff,0xdc,0xff,0xf7,0xff, // 13648
0xe0,0xfe,0xc1,0xff,0x16,0xff,0x2c,0x01, 0x67,0xfc,0xa6,0x01,0x96,0xff,0x39,0xfe, // 13664
0x55,0xfe,0x6c,0xfb,0xfc,0xff,0x7f,0x02, 0xce,0xfd,0x6e,0x01,0xbe,0xfd,0x64,0xfe, // 13680
0xfd,0x00,0xdf,0x00,0x84,0x00,0xc8,0x00, 0x54,0xff,0x57,0x00,0x8c,0x00,0xd1,0xff, // 13696
0x27,0x01,0x1e,0x00,0x9e,0x01,0xdc,0xfe, 0x09,0x01,0x8a,0xff,0x62,0xfe,0x0d,0x00, // 13712
0x52,0xfe,0x56,0x01,0x9a,0x00,0x6d,0x00, 0x7f,0xff,0xa4,0xfd,0x7b,0xff,0xaf,0xff, // 13728
0x19,0xff,0x81,0xff,0xd0,0xff,0x2a,0x00, 0x71,0x00,0xc2,0x01,0x53,0x03,0xaf,0x02, // 13744
0xa3,0x00,0x27,0x01,0x36,0xfe,0x91,0x00, 0xb9,0xfb,0x23,0xff,0xe2,0xfd,0xd1,0x01, // 13760
0x73,0x01,0x00,0xfe,0x4c,0xfe,0x8c,0xff, 0x8a,0x01,0x74,0x01,0x5f,0xfe,0x95,0xfe, // 13776
0xba,0xfe,0xe8,0xfd,0x56,0xfc,0x73,0x06, 0x1f,0x01,0x09,0x00,0x2e,0x01,0x55,0xff, // 13792
0x30,0x02,0xb4,0xff,0x6d,0x00,0x49,0x00, 0xd2,0xfd,0x75,0xfd,0x86,0xfd,0x8f,0xfb, // 13808
0xe9,0xff,0xf1,0x01,0x39,0x01,0x1b,0xfe, 0xd8,0x01,0x29,0x00,0xa4,0xff,0xc1,0xff, // 13824
0x19,0x01,0x10,0xf6,0x2a,0x00,0xeb,0x00, 0x86,0x02,0x5b,0x02,0x0f,0x00,0x62,0x00, // 13840
0xc7,0x00,0x98,0xff,0x56,0xff,0xa1,0x00, 0x3b,0x00,0xed,0xfd,0xfd,0xfc,0xe6,0xfe, // 13856
0x2f,0x01,0x7a,0xfd,0x43,0xfe,0x56,0xfe, 0x56,0xff,0x31,0x00,0x1b,0xfd,0xea,0xfe, // 13872
0x44,0xfe,0xf7,0xfd,0xb7,0xfa,0x00,0x01, 0xe8,0x00,0x9f,0x00,0x9c,0xfc,0xa0,0x00, // 13888
0x9e,0x01,0xb9,0x00,0xc6,0xff,0xfb,0xff, 0xf8,0xfe,0x60,0xf7,0x3d,0xfe,0xe2,0x00, // 13904
0x47,0x00,0x33,0xfd,0x45,0xfe,0x8f,0xff, 0x1a,0x03,0x9f,0xff,0x35,0x00,0x5e,0xff, // 13920
0x1e,0xfc,0x21,0xff,0xd5,0xf4,0x6d,0xfc, 0xe4,0xff,0xe5,0x01,0x46,0xff,0x04,0xff, // 13936
0x73,0x01,0x45,0xfe,0x96,0xff,0x11,0xff, 0x7d,0xfe,0x59,0x02,0x68,0xf8,0x83,0xfc, // 13952
0x74,0x02,0x59,0xfd,0x23,0xff,0xfb,0x01, 0xa2,0xfa,0xbb,0xff,0x12,0x00,0x93,0xff, // 13968
0x86,0x02,0x19,0x02,0xd2,0xfe,0x61,0x00, 0xa9,0xfe,0xe9,0xfd,0x84,0x01,0x0e,0x00, // 13984
0x93,0xff,0x08,0x00,0xe0,0xff,0x70,0x00, 0x17,0xfe,0x4b,0xfe,0xd4,0xfd,0x8b,0x01, // 14000
0x2f,0x01,0x99,0x00,0x0b,0xff,0x87,0x00, 0x79,0xfe,0x9c,0xff,0x79,0xff,0xd3,0xfa, // 14016
0x79,0xfd,0xda,0xfc,0xb7,0xfa,0x51,0xfe, 0x9c,0x00,0x17,0x00,0x76,0x01,0xc2,0xfe, // 14032
0xd7,0x03,0x4f,0xff,0xd9,0xfe,0xbe,0xff, 0xb3,0x03,0xac,0x01,0x24,0x03,0xbc,0xfe, // 14048
0xa8,0x01,0x06,0x00,0x0c,0x03,0x00,0x01, 0x34,0x01,0xf8,0xff,0x91,0x01,0x4e,0xff, // 14064
0xb1,0x01,0x5e,0xff,0x21,0x00,0xc7,0x01, 0xc6,0xfb,0xda,0xfd,0xe0,0xff,0xa5,0xfe, // 14080
0x49,0x01,0x3b,0xff,0x95,0x00,0x71,0x00, 0xe7,0xfc,0xca,0xff,0xd9,0x00,0x3f,0x02, // 14096
0x79,0xff,0xf3,0x01,0x03,0xfe,0x88,0x03, 0x6f,0xfe,0x1c,0x02,0x83,0xff,0x42,0xff, // 14112
0x1b,0x01,0xb8,0x00,0xf0,0xfe,0x25,0x02, 0xb9,0xff,0xe8,0x01,0x1b,0x02,0x3e,0x01, // 14128
0xa6,0xff,0xe1,0x00,0xe0,0x00,0xba,0xfd, 0x50,0xff,0xeb,0xfe,0x0f,0xff,0x90,0x00, // 14144
0x04,0x00,0xce,0xff,0x43,0xff,0xc3,0x01, 0xa1,0x01,0xd0,0xfd,0x56,0x01,0xf6,0xff, // 14160
0xe9,0xfe,0x49,0xff,0x2e,0x00,0x9c,0x00, 0x4e,0xfe,0xf0,0x00,0x06,0x02,0x3e,0x00, // 14176
0xef,0xff,0x5a,0x03,0xf2,0x00,0x1a,0x00, 0x9d,0x01,0xab,0x01,0x74,0xfe,0x55,0x01, // 14192
0x16,0x00,0x4c,0xfe,0xaa,0xfd,0x4d,0x01, 0xc3,0x01,0x26,0x00,0x20,0x00,0xbd,0xff, // 14208
0xb0,0x00,0xad,0xfe,0x7e,0xff,0x85,0xfd, 0x9a,0xff,0x6e,0xfd,0x3e,0xff,0x44,0xfe, // 14224
0x2f,0x00,0x2f,0x01,0x13,0xfe,0x7e,0x01, 0x75,0x01,0x82,0x01,0x23,0x02,0xd9,0x01, // 14240
0x1b,0xfa,0xa1,0x00,0x18,0xff,0x24,0xff, 0x4c,0x02,0x83,0xff,0x52,0x02,0xfb,0x00, // 14256
0xbe,0xfd,0x49,0xfe,0x2b,0xfd,0xb6,0xfd, 0x1f,0x00,0xd2,0x00,0xca,0x01,0x9b,0xff, // 14272
0xfd,0xff,0x49,0xfd,0xfe,0xfe,0x85,0xff, 0xcf,0xfe,0x88,0xfe,0xb8,0x01,0xfb,0xfd, // 14288
0x8c,0x00,0xfd,0x04,0x85,0xff,0x20,0x02, 0xb2,0xfd,0x6c,0xff,0xf7,0xff,0xe9,0x00, // 14304
0xe5,0xfd,0x1e,0xfe,0x96,0x00,0xed,0xff, 0x14,0x00,0xf9,0xff,0x78,0xfe,0xd7,0xfc, // 14320
0x07,0xfe,0xc8,0xf5,0xf4,0x00,0xff,0xff, 0x4b,0x02,0xe6,0xfd,0x0c,0x00,0xb4,0xfe, // 14336
0x64,0x00,0x45,0x00,0x12,0x00,0x38,0x00, 0x69,0xf2,0x28,0xfe,0x64,0xfe,0x34,0xfb, // 14352
0xed,0xff,0x11,0x00,0x0e,0x01,0x96,0xff, 0xc9,0xfd,0xaa,0x01,0xfa,0x00,0x5b,0x00, // 14368
0x8b,0x00,0x8f,0xfe,0x8b,0xff,0xdc,0xfc, 0xc3,0xf5,0x8b,0x00,0xcd,0xfe,0x9d,0xfe, // 14384
0x21,0xf8,0x40,0x00,0x42,0xfe,0x7a,0x00, 0x96,0xf6,0x23,0x00,0x2c,0xf9,0xd8,0x00, // 14400
0x3a,0xf6,0x2d,0xfd,0xac,0xfd,0x0b,0xff, 0x55,0xfb,0x92,0x00,0x0f,0x01,0x60,0xff, // 14416
0xeb,0xff,0x9d,0x04,0x7d,0x02,0x9e,0xff, 0x79,0xff,0x40,0x00,0x29,0xff,0x15,0xfd, // 14432
0x65,0xfd,0xc5,0x00,0xd3,0xfc,0xb1,0xfc, 0x81,0x01,0x87,0xff,0x82,0x00,0x83,0xfe, // 14448
0xd6,0xff,0x61,0xf4,0x63,0x01,0xc9,0xfb, 0x70,0xf2,0x47,0x00,0xed,0xff,0xf1,0xfe, // 14464
0xfa,0xff,0x12,0xfe,0x14,0x00,0x8f,0xff, 0xd3,0xff,0xc2,0xff,0x93,0x00,0x89,0x00, // 14480
0x62,0x01,0x38,0x00,0x7f,0xff,0xb7,0xfe, 0x7d,0x00,0x2a,0xff,0x16,0xfe,0x28,0x01, // 14496
0x87,0xff,0xb0,0xff,0xb0,0xfe,0x1a,0x00, 0x54,0x00,0x30,0x00,0x22,0x01,0x66,0x00, // 14512
0xef,0xff,0xa7,0x00,0xf3,0x00,0xe1,0xf5, 0xd1,0xfc,0xa7,0x00,0x8f,0x00,0xb0,0x00, // 14528
0xb3,0xff,0x8f,0xff,0xaa,0x00,0xfe,0xff, 0x4e,0xff,0x83,0xfe,0x88,0xff,0x4c,0xff, // 14544
0x3a,0xfe,0xb5,0xff,0x75,0x00,0xe7,0x02, 0xe1,0x00,0x2f,0x00,0x96,0x00,0x41,0x00, // 14560
0x84,0x00,0xc0,0xf7,0xb1,0xff,0x0d,0x00, 0x7f,0xfd,0x4a,0x00,0x73,0x00,0xf3,0xfd, // 14576
0x7d,0xfb,0x00,0x00,0xa5,0x00,0x0c,0x00, 0xf9,0xfe,0x93,0xff,0xa7,0x01,0xf8,0x00, // 14592
0x65,0x00,0x93,0xff,0xbe,0x00,0xcb,0x00, 0xe1,0x00,0xa5,0x00,0x11,0x01,0x55,0x02, // 14608
0x6c,0x01,0x4f,0xfe,0x13,0xff,0x57,0xfc, 0xfb,0x00,0x2e,0x00,0x85,0x00,0xfd,0x01, // 14624
0x80,0xfd,0x0d,0x01,0xee,0x00,0xa0,0x01, 0x54,0xfe,0xba,0xff,0xee,0xfe,0x49,0x03, // 14640
0xba,0xfa,0x05,0x00,0x7a,0x00,0x69,0xff, 0xba,0xfc,0x47,0x01,0x20,0xff,0x26,0x00, // 14656
0x8b,0x00,0xc8,0x01,0x38,0xff,0xe3,0x00, 0xc7,0xff,0x38,0x00,0x26,0x01,0xb1,0xff, // 14672
0xfd,0xfa,0xf4,0xfe,0xbd,0x01,0x09,0x04, 0xe8,0x01,0xdc,0xfd,0x07,0xfc,0x9d,0xfb, // 14688
0x78,0xfe,0xa3,0xff,0x40,0xfe,0x4b,0x02, 0x78,0x00,0x67,0xfe,0xbc,0x02,0x13,0xfd, // 14704
0xe2,0xff,0xdc,0xfe,0x7e,0xff,0xd0,0xf6, 0x7d,0xff,0x13,0x03,0xb7,0xfc,0x3e,0x00, // 14720
0x3d,0x02,0xa0,0xfd,0x3b,0xfb,0xd9,0xfe, 0x9b,0xff,0xa1,0x02,0x87,0xff,0x15,0x01, // 14736
0xf7,0x00,0x8d,0xff,0x92,0x02,0x6f,0xff, 0x87,0xff,0x74,0xff,0xf6,0xff,0x80,0x01, // 14752
0xfd,0xff,0xa0,0xff,0x3e,0x00,0x2e,0xfe, 0x0d,0x00,0x13,0x00,0xa0,0xff,0x6d,0xff, // 14768
0xa5,0xff,0x35,0xfe,0x57,0x02,0xb5,0xff, 0xec,0xff,0x70,0x00,0x9c,0xfe,0x7c,0xfe, // 14784
0xa9,0x00,0x92,0xfc,0xaf,0xfc,0xd1,0x00, 0xe7,0x00,0x1c,0x00,0x2e,0xfe,0x7a,0x01, // 14800
0x58,0x01,0x4d,0x00,0x00,0xff,0xa3,0x01, 0xe7,0x01,0xd6,0xfe,0x57,0x01,0x8d,0x01, // 14816
0x9b,0x01,0xd1,0x01,0xba,0x00,0x68,0xfc, 0x33,0xfe,0x35,0x00,0xad,0x00,0x2d,0x00, // 14832
0x98,0xfe,0x9f,0xff,0xed,0x00,0x79,0x00, 0x92,0xfe,0x13,0x00,0x1b,0xfe,0xb3,0xfe, // 14848
0x52,0xff,0x02,0xff,0x7f,0x01,0xf9,0xfe, 0x50,0x01,0x61,0x00,0x74,0xfe,0xfa,0xfb, // 14864
0x91,0xff,0xcd,0x00,0xd3,0xfe,0x9e,0x02, 0xba,0xfc,0xeb,0xfe,0x42,0xfd,0x09,0x00, // 14880
0x7f,0xfd,0x40,0xff,0xe1,0x03,0xef,0x01, 0x86,0x01,0x29,0x01,0xd2,0xfa,0x69,0x00, // 14896
0xe5,0xfd,0x4e,0xfa,0x9e,0xf8,0xd5,0xfd, 0x38,0x00,0x6f,0xfe,0x01,0x03,0xd8,0x01, // 14912
0x24,0x02,0x64,0xfe,0x5d,0x00,0xdb,0x00, 0xc5,0xfb,0x43,0x01,0x1a,0xfd,0x61,0x00, // 14928
0xa8,0xff,0xaa,0xff,0xa1,0xfd,0x52,0xff, 0xf1,0xff,0x6e,0xfe,0xce,0xff,0x11,0x00, // 14944
0x2e,0xff,0x00,0xff,0x01,0x00,0x92,0xfe, 0xad,0x00,0x2a,0x01,0x88,0xfe,0x2d,0xff, // 14960
0x10,0xff,0x30,0xfe,0x09,0x00,0x9d,0xfd, 0xcf,0xfe,0x9f,0xff,0xb4,0x01,0x81,0xff, // 14976
0x53,0xff,0xe7,0xff,0xc7,0xfc,0x7c,0x00, 0x33,0xfb,0x1a,0xff,0x2c,0x00,0xee,0x01, // 14992
0x45,0xfe,0xcf,0xfd,0x68,0x01,0xed,0x01, 0xb5,0xfe,0xfc,0xff,0x4b,0xff,0xb6,0xff, // 15008
0xaf,0xfd,0xec,0x00,0x53,0x01,0x97,0x00, 0x1b,0xff,0x6d,0x00,0xe0,0xf8,0x0c,0x01, // 15024
0x3a,0x00,0xf1,0xfe,0x16,0x01,0x4e,0xff, 0xe8,0x00,0x2f,0xff,0x21,0x01,0xe5,0xfa, // 15040
0x0e,0xfd,0x53,0xfc,0x48,0xfc,0x68,0xff, 0x5f,0xfc,0x5c,0xfc,0x93,0x00,0xee,0xff, // 15056
0x72,0xff,0xe2,0xff,0x27,0x00,0x8c,0xff, 0x37,0xfe,0x4b,0x00,0xc0,0xfe,0x97,0xff, // 15072
0xd9,0x00,0x6f,0xff,0x8a,0xfe,0x31,0x01, 0x98,0xfe,0x5f,0x00,0x5e,0x00,0x42,0xfe, // 15088
0x05,0x03,0xef,0x01,0xf0,0xfe,0xd1,0xfe, 0x84,0x00,0xb9,0x03,0x24,0x01,0xb3,0x00, // 15104
0x2c,0xff,0xb9,0xfd,0x64,0x00,0x9f,0x00, 0x69,0x02,0x8d,0xff,0x2c,0xfc,0xdc,0x01, // 15120
0x84,0x00,0xbc,0xff,0xa3,0xff,0x96,0xfe, 0x47,0xff,0x4d,0xfe,0x11,0x01,0xb1,0xff, // 15136
0x3a,0x00,0xc3,0x01,0x16,0xf9,0x1d,0x00, 0xf3,0xff,0xdb,0xff,0x96,0xfe,0xda,0x00, // 15152
0x1f,0xfe,0x1c,0xfc,0xb6,0x00,0x41,0x01, 0x8a,0x00,0xd7,0xfe,0x3d,0xfe,0x53,0xfe, // 15168
0x04,0x03,0x37,0x01,0x93,0xfd,0x0c,0xfd, 0x77,0xfe,0xe6,0xfb,0x80,0x00,0xd4,0xfe, // 15184
0x4f,0x02,0xed,0x01,0x86,0x00,0xe9,0xff, 0x69,0x00,0x12,0xfe,0x53,0xff,0x5a,0x00, // 15200
0xb8,0x01,0x2a,0x00,0x7b,0x03,0x9e,0x01, 0x44,0x00,0xd2,0x01,0x5f,0x00,0x89,0x00, // 15216
0x80,0x02,0x05,0x00,0x68,0xff,0x5f,0xff, 0x2a,0x01,0x74,0xfe,0xea,0xfc,0x88,0x00, // 15232
0xda,0xff,0x16,0x01,0x3a,0x00,0xd8,0xfd, 0x4a,0x00,0x6b,0x02,0x75,0x00,0x8c,0xf9, // 15248
0xef,0xff,0xd0,0x00,0x00,0x00,0x7f,0x00, 0xee,0xff,0xca,0xfd,0xe8,0xff,0xd4,0x01, // 15264
0x40,0x03,0xe4,0xfd,0x34,0x01,0xf9,0x00, 0x95,0x00,0x8b,0xff,0x7c,0xfe,0xe8,0xff, // 15280
0xce,0xfd,0x5b,0x02,0xd2,0xfd,0x08,0xfb, 0x03,0x01,0x67,0xff,0xd8,0x00,0xc6,0xff, // 15296
0xf9,0x01,0x33,0x01,0x26,0xf9,0x7d,0x01, 0x08,0xff,0x54,0x00,0x78,0x02,0x6f,0xfe, // 15312
0xde,0xfe,0xf4,0xfd,0xd4,0xfe,0x7a,0xfc, 0x13,0xfe,0xf4,0x00,0x9f,0x03,0x83,0x01, // 15328
0xb5,0xff,0x06,0xff,0x9b,0xfe,0x92,0x00, 0xfc,0x00,0xa8,0x01,0x2a,0xff,0x00,0x00, // 15344
0x0a,0x01,0x0a,0x01,0xe3,0xff,0xff,0x00, 0x53,0x02,0xb2,0x00,0xb8,0x02,0xe3,0x00, // 15360
0x62,0xfd,0x81,0xff,0x99,0xff,0x48,0xfe, 0xa5,0xfe,0x27,0x01,0xa1,0xfe,0x98,0xfe, // 15376
0x28,0xfd,0xa9,0x00,0x5f,0x00,0x0d,0xfc, 0x1b,0x00,0x61,0xff,0x77,0x00,0xf2,0x00, // 15392
0x15,0x00,0x5f,0x00,0x80,0xfd,0xa5,0xfe, 0x33,0xfb,0xd3,0xfd,0x6d,0x01,0x3e,0xfd, // 15408
0x00,0xff,0x1a,0x00,0xe0,0xff,0x31,0xfe, 0x09,0x03,0xa7,0xff,0x2e,0x01,0x49,0x00, // 15424
0x91,0xff,0xb8,0xff,0xf5,0xff,0x0b,0x00, 0xf6,0x01,0xfe,0xfc,0x0d,0x00,0x58,0x01, // 15440
0xbf,0x00,0x5b,0x02,0x8a,0x03,0x2b,0x03, 0x09,0xfe,0x24,0x01,0x53,0x00,0xa7,0x01, // 15456
0xb7,0xff,0xb1,0xff,0xb1,0xff,0xf0,0xfe, 0x9d,0x01,0x8c,0xff,0x13,0x00,0x2f,0x03, // 15472
0x0c,0x02,0xae,0xf8,0xde,0xff,0x30,0x02, 0x95,0x01,0x98,0x00,0x51,0x01,0x7c,0xff, // 15488
0x78,0xf7,0x99,0x01,0x02,0x00,0x90,0x03, 0xaa,0xfe,0x9e,0x00,0x08,0x01,0x8a,0x04, // 15504
0xd5,0xff,0x64,0x02,0x0f,0xff,0xb5,0xfe, 0x17,0x03,0x99,0x00,0x07,0x01,0xad,0x03, // 15520
0x88,0x00,0xc2,0x00,0xc6,0x00,0x36,0x02, 0x03,0x01,0xb2,0x00,0xe0,0xff,0xd6,0x00, // 15536
0xb7,0x00,0x9e,0x02,0xae,0xfd,0x50,0xff, 0x2e,0x02,0x48,0xfe,0x68,0xff,0xe7,0x01, // 15552
0xa5,0x00,0x4f,0x01,0xed,0x01,0x4a,0x01, 0x79,0xfe,0x93,0x02,0x8f,0x01,0x67,0x00, // 15568
0xc4,0xfe,0x97,0x02,0x93,0x00,0xfb,0x00, 0x8b,0x03,0x88,0xff,0x49,0xfe,0xeb,0x02, // 15584
0x6e,0x02,0x4b,0x01,0xd5,0xfd,0xec,0x01, 0x33,0x00,0xfd,0xfc,0x17,0xfd,0x3d,0x02, // 15600
0x0f,0x02,0xca,0x00,0x7b,0x01,0x8b,0xfe, 0xb8,0x00,0xb2,0xfe,0xce,0x00,0x21,0x01, // 15616
0x23,0x01,0xfd,0x01,0xdf,0xff,0xf5,0x00, 0xda,0xfd,0x91,0x00,0x35,0x01,0xbf,0x01, // 15632
0x27,0x01,0x3d,0x01,0x94,0x00,0x8e,0x02, 0xc9,0xff,0x15,0x02,0x3a,0x00,0x2f,0xfe, // 15648
0x43,0xff,0x7e,0x00,0xed,0x02,0x2b,0x02, 0x2f,0x01,0x0d,0x02,0x92,0xfd,0xcd,0xff, // 15664
0x83,0x01,0x7c,0xfe,0xf1,0x01,0x12,0xfc, 0x0c,0x02,0xd8,0x00,0x03,0xfe,0xdc,0xf9, // 15680
0x0f,0xfe,0x5f,0x01,0xc2,0x00,0x65,0xff, 0xc5,0x00,0x57,0x02,0xe6,0xff,0x85,0x02, // 15696
0xf1,0xff,0x93,0xff,0xb0,0xfe,0xb8,0xff, 0xae,0xff,0x86,0x01,0xc9,0xfd,0x91,0xff, // 15712
0xc8,0xff,0x19,0x01,0xe9,0x00,0x2c,0x00, 0x55,0xff,0xe7,0xfe,0xe6,0xff,0x32,0xfe, // 15728
0xb4,0xfb,0xa2,0xf4,0x63,0xff,0x0c,0x01, 0x6d,0x00,0x23,0x00,0x1a,0x01,0x86,0xff, // 15744
0xd0,0xf9,0x8c,0xff,0xdf,0xfe,0xa1,0xfe, 0x70,0x00,0x65,0x01,0xe7,0x03,0x93,0xff, // 15760
0x80,0x00,0x7e,0x01,0xc4,0x00,0x8d,0xff, 0xbf,0x00,0x80,0xff,0x6b,0x00,0x1a,0xff, // 15776
0x71,0xff,0xb8,0xff,0x5b,0x00,0x99,0x00, 0xf0,0x01,0x52,0x01,0xe1,0xfc,0x82,0xfc, // 15792
0xe5,0x00,0xf2,0xff,0xce,0xff,0xa9,0xfc, 0x5a,0xff,0x09,0x01,0xc3,0x00,0x73,0x00, // 15808
0xaf,0x02,0x01,0xfc,0x50,0xff,0xb9,0x00, 0x96,0x00,0x98,0xfc,0x31,0xfd,0xee,0x01, // 15824
0x99,0x01,0xff,0x00,0x66,0x06,0x7e,0x00, 0x85,0xfe,0x61,0x00,0x1d,0x01,0x38,0x01, // 15840
0x53,0x01,0xa1,0xff,0x31,0x01,0x6c,0xfd, 0x18,0x00,0xa8,0xfe,0x3c,0x00,0xf7,0xff, // 15856
0x12,0x01,0x89,0x01,0x34,0x01,0xd2,0xff, 0xf4,0xff,0xf7,0x01,0xde,0x01,0x08,0x01, // 15872
0x55,0x00,0x7e,0x01,0x04,0x00,0x36,0x02, 0x1e,0x02,0x59,0x01,0x22,0x00,0x6c,0x00, // 15888
0x54,0x00,0x9e,0xff,0x13,0xff,0x0a,0x02, 0x4c,0xfe,0x77,0xfe,0x24,0x00,0xca,0x00, // 15904
0x7c,0x00,0x40,0xfe,0xcf,0xff,0x7c,0xfd, 0x0d,0xfd,0x8b,0xfe,0xbb,0xfe,0x15,0xfb, // 15920
0x28,0x00,0xe8,0xfe,0x74,0x00,0x38,0xfd, 0x6f,0x03,0x73,0x00,0x7f,0xfd,0x87,0xfb, // 15936
0xda,0x00,0x27,0xfe,0x65,0xfd,0x49,0x00, 0xc5,0x01,0x18,0x01,0x3d,0x00,0x39,0x01, // 15952
0xc5,0x00,0x7d,0xfe,0xbb,0xff,0xf5,0xfc, 0x13,0xfd,0x9a,0xfd,0x3b,0x00,0x06,0x02, // 15968
0x36,0xff,0xef,0xff,0xba,0xfe,0xae,0x00, 0x1b,0xff,0xe7,0x01,0x6c,0x00,0xbd,0x01, // 15984
0x69,0x01,0xbd,0xfc,0x39,0x00,0x32,0x00, 0x83,0x00,0x95,0x01,0xe0,0xff,0x36,0x02, // 16000
0xa7,0x02,0x94,0xff,0x6d,0xfe,0x5c,0x02, 0x26,0xfd,0x87,0xff,0x09,0x01,0xd1,0x01, // 16016
0x27,0x00,0x18,0x00,0xd2,0x01,0xbf,0xff, 0x28,0x00,0xd6,0x01,0x17,0x01,0x3c,0x03, // 16032
0x55,0xff,0x4d,0x00,0x2c,0xfe,0xc1,0x00, 0x1c,0x00,0x4b,0x01,0xd2,0x01,0xfd,0x00, // 16048
0x2d,0x00,0x0b,0x00,0x4a,0x01,0xdd,0x00, 0xf1,0x02,0xa3,0xfe,0x35,0xfa,0x8c,0xfe, // 16064
0x4c,0x03,0xf5,0xfe,0x1a,0x00,0x9e,0x00, 0xc6,0x00,0x5f,0x00,0x39,0xff,0xcf,0x02, // 16080
0x23,0x00,0xcf,0xfe,0x72,0x01,0x90,0x02, 0x87,0x01,0x70,0x01,0xf7,0xfe,0xf7,0xff, // 16096
0xeb,0xfe,0x05,0x02,0x94,0xff,0xc1,0xfe, 0x45,0xff,0xe2,0x00,0xb8,0x00,0x8e,0x01, // 16112
0x21,0x01,0x83,0x00,0xf3,0xfe,0xe5,0x00, 0x8f,0xfd,0xd8,0x01,0xc2,0x00,0x13,0x04, // 16128
0x39,0xff,0x30,0xff,0xfa,0x00,0x51,0x00, 0x3f,0x01,0xfa,0x00,0xee,0xff,0x6a,0xf9, // 16144
0x41,0xfe,0xd5,0xfe,0xb6,0x01,0x68,0xff, 0x45,0x00,0xe4,0x00,0xc2,0x02,0x57,0x02, // 16160
0x51,0x03,0x1b,0xff,0x31,0x00,0xc4,0xff, 0x97,0x00,0x3f,0xfc,0xc1,0xfd,0x6c,0x01, // 16176
0xab,0xff,0x9c,0x00,0x2b,0x00,0x3e,0x00, 0x00,0x00,0x98,0x00,0x35,0x02,0x40,0x00, // 16192
0x47,0x00,0x2a,0xfb,0x54,0xff,0xff,0x00, 0x4e,0xfe,0xe9,0xff,0x1c,0x02,0x2c,0xff, // 16208
0xb6,0x05,0xcd,0x01,0xfd,0xff,0xfd,0xfe, 0x46,0x00,0x16,0xfc,0x8c,0xfe,0x80,0x02, // 16224
0x1a,0x00,0x23,0xff,0xfd,0xff,0x84,0xfe, 0xc5,0x00,0x15,0xfe,0x1e,0xff,0x03,0x01, // 16240
0x8a,0x00,0x97,0x00,0x90,0xff,0x09,0x00, 0x6d,0x01,0xce,0xfe,0x0e,0x00,0xce,0x01, // 16256
0x32,0x01,0xb7,0x02,0x58,0xff,0xf9,0x00, 0xd6,0xfa,0x3c,0x00,0x5f,0x02,0x8c,0xff, // 16272
0x6d,0x03,0x16,0x01,0x27,0x00,0x8a,0x02, 0x30,0x00,0x2f,0x01,0x1b,0xfe,0x5c,0xfc, // 16288
0xf3,0xfe,0x4d,0xff,0x20,0xff,0x21,0x01, 0x3b,0x01,0x80,0x01,0x65,0x00,0x53,0xfd, // 16304
0x6e,0xfc,0x83,0x02,0x17,0xff,0xfe,0xfe, 0xd3,0x01,0x07,0xff,0x99,0xff,0x5f,0xff, // 16320
0x73,0xfd,0x45,0xff,0x5c,0x02,0xb2,0xfd, 0x7b,0xfc,0x78,0xff,0x6e,0x00,0x63,0x02, // 16336
0x8b,0x01,0xb5,0xff,0xef,0x01,0x93,0xff, 0x18,0x01,0xe6,0xff,0x42,0xfc,0x77,0xfc, // 16352
0xc8,0x03,0x93,0xfc,0x48,0xff,0xfe,0x01, 0x59,0x00,0xbe,0x01,0x75,0x07,0x67,0xfb, // 16368
0x85,0x01,0x10,0xfd,0x3e,0xf9,0x6e,0xfe, 0x6b,0xff,0x3b,0xfe,0x07,0xf8,0x87,0x02, // 16384
0x97,0xff,0x68,0x01,0x5b,0x00,0x0a,0x03, 0xfb,0x00,0x48,0xfe,0xc6,0x00,0xb4,0x01, // 16400
0x08,0x00,0x58,0x04,0xfb,0x00,0x01,0x01, 0xfc,0xfc,0x68,0x01,0x13,0x01,0xfc,0x01, // 16416
0x5f,0x03,0x06,0x02,0xee,0xff,0x3a,0xff, 0x28,0xfa,0x75,0xfe,0xfb,0xfd,0xcd,0x00, // 16432
0x58,0xfe,0xb9,0x00,0xd5,0xff,0x49,0x03, 0x90,0x02,0x18,0xff,0x38,0x01,0xd5,0xfe, // 16448
0xd6,0xfe,0x9a,0x00,0x88,0xfe,0xd8,0x00, 0xc8,0xfe,0xf3,0x00,0xa3,0x01,0x25,0xfc, // 16464
0xb3,0xfa,0x6a,0xf9,0x9a,0xfe,0x09,0x02, 0x9d,0xff,0x27,0x01,0x00,0xfc,0x5d,0xff, // 16480
0x15,0xff,0x3f,0x00,0x31,0x01,0xaa,0xfe, 0x9f,0xfe,0x23,0xff,0x73,0xff,0xf3,0xfe, // 16496
0x79,0x00,0x02,0xfa,0x6d,0x02,0xc0,0xff, 0x3a,0x01,0xe0,0x00,0x9b,0xfe,0x16,0x00, // 16512
0x52,0x04,0x4f,0xfd,0x06,0x00,0xa4,0xfd, 0x9b,0xfd,0xb9,0xfd,0xe1,0xfb,0x15,0x00, // 16528
0xe2,0xff,0x9e,0xff,0x96,0x02,0x8f,0x02, 0x93,0xff,0x94,0xfe,0x80,0xff,0x7f,0x00, // 16544
0x9f,0x01,0x62,0x01,0x68,0x02,0x86,0xfc, 0x65,0xfd,0xf8,0x00,0xcd,0x02,0x45,0x01, // 16560
0x45,0xfe,0x30,0x04,0xcb,0x07,0x74,0xfd, 0xa0,0xfe,0xf7,0xff,0xe9,0x02,0x6e,0x00, // 16576
0xec,0x00,0x2b,0x01,0xce,0x00,0x40,0x00, 0x9c,0x01,0x9b,0xfd,0x53,0x01,0xa3,0xff, // 16592
0x0f,0xff,0x03,0x00,0xef,0xff,0x61,0xff, 0x7f,0x03,0xc5,0xfe,0x0e,0x01,0xb1,0x03, // 16608
0x50,0xff,0x9b,0xfd,0x7c,0x00,0xe0,0x02, 0x4e,0x00,0x8b,0x00,0x5a,0x00,0x9d,0x01, // 16624
0x26,0xfe,0xcf,0x00,0xcd,0xfc,0xb1,0xff, 0x1e,0x01,0x02,0xff,0xe6,0x01,0xc3,0xff, // 16640
0x83,0xff,0x04,0x01,0xf7,0xff,0x57,0x03, 0x09,0xfc,0xa8,0x02,0xff,0xf5,0x52,0xfb, // 16656
0xfe,0xfe,0x82,0x00,0xf0,0xfd,0xf5,0x00, 0x06,0x02,0x25,0x01,0x02,0x02,0x1b,0x01, // 16672
0xe0,0xfd,0x22,0xfe,0x24,0x00,0x4a,0x00, 0xe8,0x01,0xd1,0x02,0x53,0x01,0xca,0x01, // 16688
0x37,0xff,0xd6,0x00,0x12,0xff,0xa5,0xff, 0x3a,0x02,0xfd,0x02,0x51,0x00,0x16,0x01, // 16704
0x31,0x02,0x0e,0xff,0x56,0x00,0x86,0x01, 0xd4,0xfe,0xd3,0xff,0xd8,0xff,0xae,0x02, // 16720
0x0a,0x00,0x5e,0xff,0x24,0x02,0x39,0x02, 0xa2,0xfe,0x1c,0x02,0x91,0xfe,0x0d,0x01, // 16736
0xad,0x00,0xd2,0x01,0x30,0x01,0xab,0x00, 0x47,0xff,0xb5,0x00,0xd5,0x01,0x74,0xff, // 16752
0xe0,0xff,0xb8,0x01,0x7f,0x01,0x77,0x00, 0x9d,0xfd,0xa5,0xfc,0xbe,0x00,0x54,0xff, // 16768
0x96,0xfe,0xaf,0xfe,0x42,0x00,0xaa,0xff, 0x87,0x01,0xeb,0xfc,0x01,0xff,0x61,0x01, // 16784
0xfb,0x00,0x41,0x00,0xd2,0xfd,0x4e,0x01, 0x2e,0xfe,0xda,0xff,0x59,0x00,0x82,0xff, // 16800
0xbf,0x01,0x05,0x02,0x35,0x01,0x96,0x01, 0x7b,0x01,0x0a,0x01,0xcf,0x00,0x4b,0x02, // 16816
0x11,0x00,0x0c,0x02,0x32,0x02,0x24,0x01, 0x24,0xff,0xf4,0x00,0x71,0xfe,0xfa,0xfd, // 16832
0xc8,0xff,0x97,0xfe,0x68,0x00,0x84,0x00, 0x51,0x00,0x13,0x00,0x16,0x01,0x5f,0x02, // 16848
0xe2,0xfd,0x74,0xfe,0xa7,0x00,0x14,0xff, 0x46,0xfd,0x26,0x00,0xe4,0xfd,0x22,0x01, // 16864
0x54,0x00,0x3a,0x02,0xfa,0x00,0x43,0x01, 0xbb,0xfe,0x54,0x00,0x52,0xff,0xa5,0x00, // 16880
0x18,0x00,0x87,0xff,0x25,0x00,0x77,0xff, 0x98,0xff,0x32,0x01,0xf9,0xff,0xaf,0xfe, // 16896
0x15,0xff,0x5e,0xfe,0x30,0xff,0x43,0x01, 0x23,0x00,0xbd,0xfd,0x81,0xfd,0x27,0x00, // 16912
0x39,0xfe,0x98,0x00,0x71,0xfe,0x1f,0x01, 0xb8,0x00,0x5e,0xfd,0x8a,0xff,0x04,0x02, // 16928
0x9a,0xff,0xdd,0xfd,0x45,0x02,0x9f,0x02, 0xa7,0x01,0xd6,0x00,0xbd,0xff,0x73,0xf9, // 16944
0x54,0x00,0xa6,0xff,0xff,0xfd,0x06,0xfd, 0x4d,0xfc,0x4d,0x00,0x30,0x00,0xf5,0xfe, // 16960
0x67,0x01,0xf6,0xfc,0xa0,0xff,0x31,0x00, 0xab,0x00,0xc1,0xfd,0x5e,0x02,0x8d,0xfe, // 16976
0x2c,0xff,0x4c,0xff,0xa8,0x00,0x45,0xff, 0x64,0xff,0xdc,0xfe,0x08,0x04,0xd3,0xfd, // 16992
0x4a,0x00,0xcc,0xfd,0x34,0xff,0x87,0x00, 0x70,0xff,0xb7,0xfe,0x8d,0xfd,0x94,0xff, // 17008
0xa2,0xfd,0x62,0x02,0x3f,0x01,0xe0,0xfd, 0xab,0x02,0x21,0xff,0x4c,0x02,0x94,0x00, // 17024
0xd6,0xff,0x0c,0x00,0xd3,0xf9,0x4d,0x00, 0xdb,0xff,0x7d,0xff,0xee,0xff,0xff,0xff, // 17040
0x25,0xff,0x28,0xfb,0xc9,0x01,0x4e,0x01, 0xcd,0xfe,0xfa,0xfd,0x8f,0xff,0x61,0x00, // 17056
0x99,0x00,0xef,0x00,0x91,0xff,0x85,0x01, 0xfe,0xfe,0xed,0xfe,0x39,0x00,0x76,0xff, // 17072
0xf3,0xfd,0x0c,0x02,0xf7,0x03,0x5e,0xff, 0x83,0x01,0x38,0x00,0x04,0x01,0x0f,0xff, // 17088
0x33,0x01,0x55,0x00,0xcf,0x01,0x93,0xfd, 0x8f,0x01,0xa5,0xff,0xac,0xfc,0x7f,0xfc, // 17104
0x1f,0x00,0x15,0xfd,0x10,0x00,0xc6,0x01, 0xee,0xff,0xc0,0xff,0x3e,0x01,0x03,0xfe, // 17120
0xf1,0xff,0xd8,0x00,0xe6,0xfd,0x1b,0xff, 0x3c,0xff,0xbc,0xff,0x13,0xfd,0xc9,0xff, // 17136
0x2d,0x01,0xc1,0xff,0xc7,0x00,0x89,0xff, 0x13,0xfe,0x61,0xf9,0xcf,0xff,0xb1,0xff, // 17152
0xe8,0xff,0x78,0xff,0xe6,0xff,0xf4,0xff, 0x31,0xfe,0x42,0xff,0x3e,0x01,0x2a,0xfd, // 17168
0x67,0x00,0x98,0xff,0x7a,0x00,0xa8,0x00, 0xc4,0x03,0x5f,0xff,0x98,0x00,0x49,0x00, // 17184
0x15,0xf9,0x32,0xfe,0x91,0x01,0xd5,0x00, 0x3b,0xfe,0x87,0xfe,0xb4,0xfe,0x40,0x02, // 17200
0x1c,0xfe,0x38,0xfe,0x55,0xff,0xbc,0xfd, 0xcd,0xfe,0xb0,0xff,0xa0,0x01,0x71,0xff, // 17216
0x02,0x00,0x15,0xfe,0x27,0xfb,0xb0,0xff, 0x0c,0xfe,0x92,0xff,0xd1,0xfd,0x89,0x02, // 17232
0xa5,0x00,0x13,0xfe,0x65,0xff,0xef,0xff, 0x77,0xff,0x98,0xfe,0x38,0x01,0xe5,0xfe, // 17248
0x36,0xff,0x4a,0xff,0x00,0xfb,0x76,0xfe, 0x07,0x01,0xf5,0xfc,0x6b,0xff,0x7d,0xfd, // 17264
0xfa,0xfe,0x26,0xfe,0x43,0xfc,0x9e,0xff, 0xa6,0x00,0xde,0xfe,0x6e,0xff,0x58,0xfe, // 17280
0xe7,0x00,0xd0,0xfb,0x53,0xff,0x2b,0x00, 0x28,0x00,0x57,0xfe,0x25,0xfd,0x0e,0x02, // 17296
0xc6,0xfe,0xd1,0xff,0x07,0xfe,0xb6,0xfe, 0x80,0xff,0x3d,0xfd,0x07,0xfd,0x5b,0x00, // 17312
0x9e,0x01,0x1e,0x01,0x38,0x02,0xbe,0x00, 0xc2,0x00,0x22,0x00,0xa9,0x00,0x00,0x01, // 17328
0xd1,0xfe,0x46,0xff,0x4b,0x00,0x82,0x01, 0x01,0xfd,0x27,0xff,0x3d,0x00,0x84,0xff, // 17344
0x29,0x00,0x63,0x00,0x79,0xfd,0xea,0xf5, 0x93,0xfe,0x34,0xff,0xf6,0xff,0x89,0xff, // 17360
0x0e,0xff,0xa5,0xfe,0x3b,0xfe,0xa0,0xfe, 0x7f,0x00,0x9d,0x01,0x7b,0xfd,0x43,0x00, // 17376
0x3e,0x01,0xfd,0xfd,0xd8,0xfe,0x2a,0xff, 0xfd,0x00,0xe1,0x00,0x0e,0xff,0xda,0xff, // 17392
0x45,0xfe,0xe5,0xfd,0xe3,0xfc,0x66,0xff, 0xdb,0xff,0x0e,0x01,0xe7,0x01,0xa1,0xfd, // 17408
0xd2,0x02,0xa7,0xff,0x24,0xff,0xec,0xfe, 0x17,0x00,0xe5,0xff,0xc4,0xfe,0x86,0xfe, // 17424
0x90,0xfe,0x23,0x00,0xe3,0xfd,0xd7,0xff, 0x2d,0x01,0x7c,0x00,0x70,0x01,0x04,0xff, // 17440
0x5a,0xf9,0x0e,0xff,0x09,0xff,0xe6,0xfe, 0xe1,0xff,0xb2,0xff,0xe2,0xff,0x2e,0x00, // 17456
0xd5,0xfe,0x81,0xff,0x38,0xff,0x63,0xff, 0x3f,0xfe,0x90,0xff,0x5a,0x01,0x73,0x01, // 17472
0x16,0x01,0xfe,0x00,0x1a,0x00,0xa9,0xff, 0x36,0x00,0x13,0x01,0xa1,0xfc,0xdc,0xf8, // 17488
0xda,0xfe,0x3a,0x00,0x69,0x01,0x62,0x00, 0x51,0x00,0x29,0xfc,0x64,0x00,0xda,0xff, // 17504
0x30,0xfd,0x34,0x00,0xcf,0x01,0x5a,0x00, 0x3b,0x00,0x26,0xfd,0xfc,0xfe,0x9f,0xfd, // 17520
0x0e,0xff,0x87,0x01,0x39,0xff,0x36,0x00, 0xc3,0x00,0xdb,0xff,0xb9,0xff,0x3c,0x00, // 17536
0x80,0x00,0x54,0x01,0xe2,0xff,0x10,0x00, 0x71,0x00,0xfb,0xfc,0xe4,0xfe,0x0f,0x01, // 17552
0x02,0x00,0xdf,0x01,0x69,0x01,0x99,0x02, 0xd3,0xfd,0x2f,0x01,0x37,0xfe,0x35,0x00, // 17568
0xdc,0x01,0x6c,0xfc,0xbf,0xfe,0xbd,0xff, 0x37,0xff,0x8c,0x00,0xc5,0xfe,0xd7,0xff, // 17584
0xf2,0xff,0x42,0xfe,0xd7,0xfc,0x1a,0x02, 0xb6,0x01,0xa8,0x00,0x17,0x00,0x6a,0x01, // 17600
0xab,0x02,0xae,0xfe,0x1c,0x00,0xb5,0xff, 0x12,0x00,0xae,0x00,0x35,0xff,0x05,0x00, // 17616
0xc7,0xfe,0xf0,0xfd,0xe6,0x00,0x8f,0xfa, 0xea,0xfa,0xe2,0xfe,0x50,0xfe,0xa6,0x01, // 17632
0x2f,0x02,0x1c,0x00,0x8c,0x00,0x60,0x01, 0x0b,0x01,0xff,0xfb,0xb2,0xfd,0x05,0x01, // 17648
0x05,0x00,0x46,0xfe,0xa1,0xff,0x67,0xff, 0x1e,0xfd,0x2a,0x00,0x1c,0xfd,0x11,0x00, // 17664
