#if defined __ICCARM__
#define __ALIGNED(x) __attribute__((aligned(x)))
#else
#define __ALIGNED(x) __attribute__((aligned(x)))
#endif
const unsigned char model1[] __ALIGNED(16) = {
0x4e,0x4e,0x43,0x55,0x01,0x00,0x01,0x00, 0x01,0x0e,0x09,0x00,0x07,0x00,0x00,0x00, // 16
0x02,0x00,0x00,0x00,0x00,0x00,0x00,0x00, 0x18,0x01,0x00,0x00,0x02,0x00,0x00,0x00, // 32
0xe0,0x01,0x00,0x00,0xc8,0x00,0x00,0x00, 0x18,0x01,0x00,0x00,0x00,0x00,0x00,0x00, // 48
0x00,0x00,0x00,0x00,0x00,0x00,0x00,0x00, 0x00,0x00,0x00,0x00,0x00,0x00,0x00,0x00, // 64
0x00,0x00,0x00,0x00,0x00,0x00,0x00,0x00, 0xff,0xff,0xff,0xff,0xff,0xff,0xff,0xff, // 80
0x43,0x4d,0x44,0x00,0x20,0x00,0x80,0x00, 0x50,0x00,0x00,0x00,0x00,0xfe,0x00,0x00, // 96
0x73,0x6d,0x61,0x72,0x74,0x63,0x61,0x72, 0x5f,0x61,0x64,0x5f,0x64,0x65,0x6e,0x73, // 112
0x65,0x5f,0x64,0x72,0x6f,0x70,0x5f,0x30, 0x31,0x5f,0x61,0x64,0x53,0x69,0x7a,0x65, // 128
0x5f,0x31,0x5f,0x6e,0x6f,0x62,0x6e,0x2e, 0x68,0x35,0x0d,0x0a,0x53,0x75,0x6e,0x20, // 144
0x41,0x75,0x67,0x20,0x20,0x39,0x20,0x32, 0x30,0x3a,0x33,0x32,0x3a,0x33,0x37,0x20, // 160
0x32,0x30,0x32,0x30,0x0d,0x0a,0x31,0x34, 0x20,0x62,0x69,0x74,0x73,0x0d,0x0a,0x6e, // 176
0x6e,0x63,0x75,0x20,0x76,0x65,0x72,0x20, 0x30,0x2e,0x30,0x70,0x0d,0x0a,0x00,0x00, // 192
0x00,0x00,0x00,0x00,0x00,0x00,0x00,0x00, 0x00,0x00,0x00,0x00,0x00,0x00,0x00,0x00, // 208
0x43,0x4d,0x44,0x00,0x20,0x02,0x00,0x00, 0xd0,0x00,0x00,0x00,0x10,0x02,0x00,0x00, // 224
0x00,0x01,0x00,0x04,0x07,0x0a,0x06,0x0d, 0x00,0x00,0x00,0x00,0x00,0x00,0x00,0x00, // 240
0x01,0x00,0x07,0x00,0x01,0x00,0x01,0x00, 0x8c,0x00,0x01,0x00,0x00,0x00,0x00,0x00, // 256
0x0a,0x00,0xff,0xff,0xff,0xff,0xff,0xff, 0x00,0x01,0x01,0x00,0x18,0x01,0x00,0x00, // 272
0x00,0x00,0x03,0x00,0x0e,0x00,0x00,0x00, 0x00,0x00,0x00,0x00,0x00,0x00,0x00,0x00, // 288
0x00,0x00,0x00,0x00,0x00,0x00,0x00,0x00, 0x00,0x00,0x00,0x00,0x00,0x00,0x00,0x00, // 304
0x00,0x00,0x00,0x00,0x00,0x00,0x00,0x00, 0x00,0x00,0x00,0x00,0x00,0x00,0x00,0x00, // 320
0x00,0x00,0x00,0x00,0x00,0x00,0x00,0x00, 0xa8,0x07,0x00,0x00,0x18,0x01,0x00,0x00, // 336
0xe9,0xfe,0xe6,0xf7,0x64,0x06,0x9e,0xfa, 0x93,0x06,0x52,0xf3,0x7f,0xff,0x0c,0x03, // 352
0x36,0x09,0x02,0x00,0x64,0x04,0x38,0x01, 0xd7,0x01,0xd6,0xfe,0x76,0x05,0x15,0xfc, // 368
0x07,0xfd,0xe6,0xf9,0xa4,0x08,0x57,0xfd, 0xda,0x01,0xdf,0x09,0x24,0xfd,0x89,0xf8, // 384
0x06,0x02,0xd0,0xff,0xd5,0xfc,0x86,0xf6, 0x76,0xf9,0xe4,0xff,0x9b,0xff,0x9f,0x05, // 400
0x87,0xf8,0x94,0xfd,0x60,0xff,0xfd,0x02, 0xae,0x01,0x3d,0xf8,0x23,0x05,0x04,0x09, // 416
0xf1,0xfe,0xe2,0xfc,0xcb,0x05,0x3e,0xf7, 0x03,0xfc,0x83,0x08,0xb0,0x02,0xeb,0xf4, // 432
0xcb,0x03,0x2d,0x0c,0x4f,0x08,0x97,0xf9, 0x8d,0x0b,0xd5,0x07,0x76,0x01,0x49,0x01, // 448
0xb4,0xfd,0xd1,0xfb,0x76,0x07,0x86,0xf9, 0xf4,0x07,0x55,0xfa,0x13,0x05,0xc9,0xf6, // 464
0x47,0xf8,0x91,0xff,0x9d,0x01,0xca,0xfb, 0x29,0x06,0x4d,0x04,0x81,0xfa,0x82,0x00, // 480
0xb6,0x00,0x65,0xfa,0x82,0xf6,0x1c,0x07, 0x24,0x00,0xd1,0xf6,0xe8,0x02,0x8e,0x06, // 496
0xbe,0xf5,0x07,0x06,0xfd,0xfc,0x03,0x03, 0x79,0x08,0x11,0xfb,0x1c,0x02,0x76,0x02, // 512
0x7c,0xfa,0x99,0x00,0xb9,0xf5,0xdf,0xf4, 0xa4,0x03,0x79,0xfb,0xf8,0xf8,0xe1,0xfc, // 528
0x0d,0xf8,0x3d,0xfc,0xfc,0x07,0x0d,0x04, 0xcb,0xff,0xa9,0xfd,0xe0,0x05,0x89,0x01, // 544
0x69,0xfa,0xc3,0xf6,0x0e,0x05,0xd4,0x00, 0xae,0xf6,0x99,0xf9,0x0f,0x07,0x97,0x05, // 560
0x73,0xf8,0x1e,0x06,0xae,0xf9,0x2a,0xfe, 0xd1,0xfb,0x4f,0x08,0x85,0xfd,0xf6,0xfe, // 576
0xf7,0xef,0x2f,0xf8,0xd5,0xfa,0xba,0xfb, 0x52,0x06,0xf9,0x01,0x0f,0xf9,0xd6,0xf8, // 592
0x21,0x03,0x11,0x03,0xba,0xfa,0xb6,0x00, 0x40,0x03,0xbc,0xfd,0x81,0x07,0xf7,0x00, // 608
0x63,0xf8,0x5a,0x0b,0xc8,0x07,0x1a,0x05, 0x6b,0x01,0x89,0xf3,0x42,0xf7,0x1b,0x00, // 624
0x6e,0x02,0xe3,0x05,0x11,0x05,0xf6,0xf9, 0x46,0x05,0xde,0xff,0x39,0x05,0xd6,0xf9, // 640
0x75,0xff,0x92,0xff,0xae,0xf5,0xea,0xff, 0x44,0x02,0x51,0xfe,0x87,0xfb,0xad,0xfc, // 656
0x8c,0xfa,0x4f,0x05,0xc2,0x06,0xa9,0xfe, 0x48,0x00,0xa0,0xfb,0x02,0xfd,0xd7,0xf7, // 672
0x59,0x0a,0x3b,0xfc,0x9f,0x02,0x3b,0xf6, 0xdc,0x06,0xf5,0x04,0x4d,0xf8,0x45,0xfe, // 688
0x79,0x03,0xd5,0x08,0x28,0xfa,0xc3,0xfb, 0x71,0xfe,0xdc,0xfb,0xef,0xf6,0xff,0x04, // 704
0xd6,0xfc,0xd0,0xf5,0x0f,0x03,0xcf,0x02, 0x61,0x01,0x3f,0xfd,0xb9,0x0a,0x3c,0x01, // 720
0xe2,0x03,0x4a,0x03,0x49,0xfd,0x80,0xfe, 0xee,0x07,0xf1,0xfe,0xc6,0xf7,0x2a,0xfc, // 736
0x7d,0x03,0xf0,0x08,0xa1,0xff,0x2d,0xf5, 0x24,0xfd,0xbe,0xfd,0x54,0xfc,0x45,0x03, // 752
0xfd,0x02,0x0a,0x06,0x43,0xfc,0x1d,0xfd, 0xf4,0x08,0x2f,0x05,0x24,0xfd,0xe1,0x00, // 768
0x57,0x03,0x51,0x02,0x27,0xfe,0xd6,0x02, 0x0d,0x05,0x67,0xf2,0x98,0x01,0x5d,0xff, // 784
0xcb,0xf8,0xfd,0xff,0x6d,0x00,0x45,0xf6, 0x80,0xfa,0x53,0x09,0x09,0x03,0x77,0xf6, // 800
0xed,0x03,0x73,0xfc,0xdf,0x04,0x28,0xfc, 0x45,0xf8,0xc1,0x01,0x0a,0x04,0x3d,0x05, // 816
0x53,0xfa,0x70,0x05,0x72,0xfa,0x6f,0x06, 0x21,0xfd,0xad,0xf5,0x56,0x00,0x88,0x02, // 832
0xc4,0xf3,0xa3,0xf7,0xa6,0x02,0x5e,0xf8, 0x6e,0xfb,0x52,0x09,0x55,0xfb,0xb3,0xff, // 848
0x54,0x0a,0x38,0xfd,0xfb,0x04,0xab,0x03, 0xeb,0xff,0xcd,0xfa,0xe5,0x0a,0x3b,0xfc, // 864
0x54,0xfe,0x19,0xfb,0x9f,0x01,0xf7,0x04, 0xb3,0xfd,0x27,0x01,0xcb,0x0b,0x7f,0x05, // 880
0x6b,0x04,0x3b,0xfc,0xdf,0xfc,0x8f,0xfa, 0x7e,0x01,0x4c,0xfc,0x81,0x06,0xa2,0x08, // 896
0xb8,0x06,0x97,0xf3,0x7f,0xfe,0xa5,0x04, 0x81,0xf7,0x9a,0x00,0x31,0xf9,0xc1,0xfe, // 912
0x64,0xf8,0x24,0x06,0x60,0x03,0xcd,0x0c, 0x70,0xf9,0x35,0xfe,0x99,0xf8,0x13,0x05, // 928
0x19,0x00,0x51,0xf5,0x08,0x04,0x9a,0x02, 0xb5,0xff,0x00,0x04,0xc6,0xfe,0x26,0xff, // 944
0xe1,0x0a,0x78,0xf2,0x0e,0xff,0xee,0xfd, 0x0a,0x04,0x9f,0xf5,0x33,0x05,0x6c,0x04, // 960
0x4a,0xf8,0x34,0xff,0xfe,0x03,0x23,0xfc, 0x09,0xfd,0x46,0xfe,0xe1,0x02,0x15,0x0b, // 976
0x45,0xff,0x4b,0x0b,0x51,0x00,0x98,0xf6, 0x32,0x01,0x3f,0x07,0xa1,0xfc,0x1c,0x03, // 992
0x67,0x03,0x86,0xff,0xdb,0x06,0xc7,0xfb, 0xbd,0xfb,0x95,0x00,0xcd,0x09,0xc8,0x05, // 1008
0xed,0x06,0x5e,0x02,0x98,0xf0,0xa1,0x05, 0x03,0x00,0x3c,0x01,0x51,0x01,0xe0,0xfc, // 1024
0x63,0x03,0x12,0x03,0x9a,0x01,0xcd,0xfe, 0x9f,0x01,0x84,0xf7,0xcc,0xf6,0xfe,0x08, // 1040
0xea,0xf6,0xc1,0x08,0xe7,0xfc,0xe8,0xfa, 0x8b,0xfe,0xeb,0x07,0xda,0xf9,0x56,0xff, // 1056
0x5e,0x0b,0x2e,0x05,0x50,0xf6,0xf2,0xfd, 0xe6,0xfc,0xa1,0xfb,0x8e,0xfc,0x36,0x0a, // 1072
0x46,0xf8,0x1e,0xfc,0xe1,0x01,0x56,0x05, 0xc6,0xee,0x76,0xfc,0xbc,0x03,0x93,0x00, // 1088
0xfd,0x01,0xcd,0x01,0x4e,0x01,0x32,0x01, 0x9f,0xfd,0x15,0x0a,0x20,0xf4,0x22,0x02, // 1104
0xd1,0x01,0x44,0x05,0xf1,0xf4,0x97,0x07, 0x20,0x00,0x11,0xf6,0x1b,0xff,0x2d,0x00, // 1120
0xf4,0xf5,0x76,0x03,0x0a,0x04,0xb9,0xf7, 0x18,0xfd,0x6e,0x02,0x45,0xfa,0x2c,0x0a, // 1136
0xac,0xfd,0xa0,0xfb,0x2f,0x0c,0xfb,0xfd, 0xcb,0x06,0x0c,0x06,0x7e,0xfa,0xe4,0x06, // 1152
0xbc,0x00,0x62,0xfc,0xe5,0x03,0x34,0x01, 0x97,0x01,0xc3,0xf1,0x4d,0x0b,0xd5,0x01, // 1168
0x5b,0xfb,0xd4,0x05,0x8c,0xff,0x33,0xff, 0x72,0xfd,0x8b,0x03,0x86,0x08,0x6b,0xff, // 1184
0x91,0x0b,0x92,0xf4,0x26,0xfc,0x54,0xf9, 0xec,0x02,0x60,0xf5,0xb9,0xf5,0x9b,0xfe, // 1200
0x1c,0x06,0x2f,0xfd,0x66,0x09,0xe5,0xfd, 0x44,0x08,0xe0,0x01,0xcf,0xfc,0x59,0x06, // 1216
0x7c,0xfd,0x8e,0xf5,0xf6,0x09,0xcb,0xf7, 0x50,0xfe,0x70,0xfe,0xe7,0x03,0xff,0x02, // 1232
0x5c,0x01,0xf3,0xfb,0xc5,0x01,0x7d,0x03, 0x77,0xf6,0x13,0x05,0x5b,0x04,0xb9,0xef, // 1248
0x59,0x03,0x61,0x06,0x03,0xf6,0xf0,0x01, 0x4d,0x07,0x32,0x07,0xc3,0x01,0xdf,0x05, // 1264
0x6c,0xf5,0xb6,0xfb,0xc8,0xfa,0x3e,0x05, 0xb2,0xf7,0x01,0x03,0xeb,0x04,0x4d,0xfa, // 1280
0xf0,0x04,0x29,0x01,0xe8,0xf4,0xda,0xee, 0xa9,0x08,0x55,0xfa,0xe0,0x0d,0x14,0xfa, // 1296
0xfa,0x02,0x3e,0xfd,0x49,0xfc,0xdb,0x05, 0x63,0xfc,0x78,0x06,0x24,0x03,0x19,0xfd, // 1312
0xdd,0x03,0x9b,0x04,0x71,0x03,0x06,0xfd, 0xf9,0x07,0x64,0xf6,0x60,0xff,0x16,0x0a, // 1328
0x41,0x03,0xef,0x01,0x7e,0x00,0xbb,0xf5, 0xa0,0xfa,0xaf,0x06,0x78,0x01,0x12,0x08, // 1344
0xa4,0xf9,0x07,0x0a,0xdb,0x02,0x29,0x02, 0xb4,0x00,0xc1,0xfd,0xe6,0xfe,0xfe,0x05, // 1360
0x24,0x01,0xc4,0x02,0x18,0x01,0x9b,0x09, 0x32,0x02,0xad,0x02,0x51,0xf1,0x57,0xfb, // 1376
0xaf,0x04,0xe5,0xfc,0xc1,0xfa,0x16,0xfa, 0xe9,0xfa,0xeb,0x03,0x24,0x03,0xb4,0xfa, // 1392
0x31,0xfe,0x55,0x0e,0xce,0x04,0x70,0xff, 0xd3,0x01,0x82,0x01,0x64,0xff,0x1d,0xf9, // 1408
0x76,0x0c,0xd0,0xf8,0x88,0x0a,0x38,0xfb, 0xa4,0xf2,0x32,0xfc,0x6a,0x02,0xa0,0xfb, // 1424
0x59,0xfa,0x38,0x02,0x32,0xff,0x4e,0x03, 0x69,0x02,0x2e,0x08,0x39,0xfb,0x31,0x02, // 1440
0xd4,0x00,0x24,0xfc,0xa4,0x07,0x26,0xf8, 0x60,0xfb,0x6d,0x09,0x5c,0x03,0x3d,0x02, // 1456
0x73,0xff,0x4d,0xf8,0x06,0x03,0x02,0x04, 0x64,0x07,0x06,0xfb,0x67,0xff,0xde,0x0b, // 1472
0x4f,0xf9,0x8f,0x06,0x93,0x00,0xc3,0x04, 0xa8,0xff,0x05,0xfb,0xed,0xf6,0xfa,0x0a, // 1488
0x1a,0xff,0xde,0xfe,0x64,0x05,0x44,0xf3, 0x5f,0xf8,0xac,0x00,0xbf,0x00,0x23,0x04, // 1504
0xc8,0x06,0x77,0xff,0xd6,0xf4,0x66,0xfc, 0xf1,0x04,0xf8,0xf6,0xeb,0x06,0xec,0x01, // 1520
0x83,0xfb,0xbf,0xf8,0xa8,0xfa,0x44,0x05, 0x9d,0x00,0x88,0x04,0x47,0x01,0xb3,0xfc, // 1536
0x7d,0xfe,0xec,0xff,0x85,0xf5,0x9d,0x05, 0x56,0xfc,0xba,0xfc,0x12,0xff,0x98,0xfa, // 1552
0xf0,0x04,0xac,0x02,0x03,0xfb,0x43,0x06, 0x15,0x04,0x84,0xf5,0x3f,0x01,0x6b,0x00, // 1568
0x24,0x09,0xe8,0x04,0xf8,0x04,0x87,0x03, 0x2a,0x07,0xa7,0xfc,0x3d,0xf8,0xd9,0x05, // 1584
0xef,0xf8,0x8f,0xf9,0x58,0x06,0xd9,0xff, 0xd7,0x03,0xc5,0x06,0xd0,0xec,0x87,0x0a, // 1600
0xbe,0xfd,0xe5,0xfc,0xef,0xff,0xaf,0x01, 0x99,0x01,0x07,0x08,0xb0,0xfb,0xf5,0xf7, // 1616
0x44,0x04,0xd2,0xfe,0xfb,0x0b,0x4f,0x06, 0x8e,0x01,0x33,0x04,0x44,0xff,0x04,0x09, // 1632
0x6b,0xfe,0xe2,0x03,0x90,0x05,0x09,0xff, 0x9c,0x00,0x15,0x09,0xca,0xf7,0x20,0xfb, // 1648
0x6a,0xfa,0x11,0xfc,0x08,0xfe,0xeb,0xf8, 0xc2,0xf8,0x1f,0xff,0x44,0x01,0x05,0xfe, // 1664
0x7f,0xf9,0x09,0x03,0xbf,0xfb,0x6c,0x01, 0xde,0x08,0x50,0x0a,0xfa,0x03,0xb2,0xf7, // 1680
0x94,0xfd,0xa8,0x0a,0xc1,0xfc,0xae,0x01, 0xb8,0x08,0xf1,0xf9,0xef,0xfc,0xf2,0x00, // 1696
0x21,0x01,0xbc,0x08,0x11,0x05,0x80,0x00, 0x0f,0xf7,0xff,0xf3,0xdd,0x02,0xe3,0x04, // 1712
0xdc,0xfb,0x50,0xf7,0x61,0xfe,0xd0,0x06, 0x67,0xf9,0x1c,0x03,0xb0,0xff,0xd1,0xfe, // 1728
0xc2,0xfa,0x22,0xfc,0x4a,0xf8,0xf2,0xf7, 0xc2,0xf7,0x08,0xfc,0x0c,0xfb,0x89,0x00, // 1744
0x7b,0xfb,0xcf,0xfd,0x09,0xfe,0xf9,0xff, 0xa9,0x07,0x85,0x06,0x15,0xf3,0xdc,0xfd, // 1760
0x19,0x04,0xce,0xfc,0x4f,0xfb,0x4e,0xfd, 0xe4,0x04,0x48,0xfd,0x2c,0x05,0xb2,0xf5, // 1776
0x52,0x00,0x05,0x01,0xdb,0xfb,0x7c,0x06, 0x3f,0xf4,0x99,0xfa,0xfa,0x01,0x57,0xfc, // 1792
0x6d,0xfa,0xd3,0xfe,0xc2,0xf6,0xec,0x03, 0x64,0xf6,0xba,0x07,0xc1,0x05,0xc5,0xff, // 1808
0x74,0xf7,0xf7,0x03,0x6f,0xfb,0x01,0xfc, 0x62,0x07,0x85,0xfa,0x3c,0x04,0x2b,0xfc, // 1824
0x52,0xf6,0x2b,0x04,0xb8,0x02,0x59,0x07, 0xf9,0xfe,0x69,0x06,0xc1,0xf3,0xd3,0x07, // 1840
0xca,0xfa,0x82,0xfb,0xe2,0x03,0xbe,0x01, 0x63,0xf6,0x9c,0xfd,0x97,0x01,0x4a,0x01, // 1856
0x33,0x06,0x74,0xf8,0xef,0xfa,0x18,0xf9, 0x08,0x02,0x93,0x08,0x2c,0x04,0x79,0x04, // 1872
0x60,0x01,0x3c,0x00,0xd3,0xf7,0x36,0x07, 0x6d,0xfd,0x3d,0x00,0x29,0x07,0xc9,0x0b, // 1888
0x23,0x0c,0x39,0x01,0x8e,0x03,0x70,0x04, 0x59,0x01,0x95,0xf7,0x66,0xff,0x24,0xfe, // 1904
0x19,0xf1,0xd5,0x07,0xd9,0x04,0x44,0xfa, 0xed,0x06,0x1f,0x03,0x4d,0x06,0xd3,0xf4, // 1920
0xd3,0x09,0x7c,0x00,0x91,0x02,0x2f,0x00, 0xc4,0xfc,0x5c,0xfc,0x09,0x05,0x80,0x02, // 1936
0x40,0x09,0x78,0xfd,0x22,0x09,0xa0,0xf9, 0xce,0xfe,0x1a,0x03,0x62,0x04,0x2c,0xfd, // 1952
0x6d,0xf6,0x8a,0x03,0xa3,0x02,0x0c,0x01, 0x95,0xff,0xfb,0x00,0xc0,0x02,0xa9,0x00, // 1968
0x65,0xf6,0xdc,0x01,0xcf,0x00,0x35,0xfd, 0x39,0x00,0x4d,0xfe,0x44,0x05,0x71,0xfc, // 1984
0x70,0xfd,0x57,0x05,0xb5,0xf0,0x19,0x00, 0x64,0xf5,0x3a,0xfe,0x02,0xff,0x33,0xff, // 2000
0x6e,0x05,0x5b,0xfa,0x36,0x00,0x33,0xfd, 0x89,0xfe,0xce,0x00,0xf0,0xf2,0x08,0xf5, // 2016
0x9b,0xf4,0x41,0x00,0x07,0x08,0x9a,0xfe, 0x4e,0xff,0xeb,0x00,0x57,0x01,0x7d,0x00, // 2032
0x1a,0xfd,0xf4,0xfb,0x86,0x09,0x67,0xf5, 0x84,0xfc,0x9a,0xff,0x00,0xf7,0xd8,0x08, // 2048
0x67,0xff,0xca,0xf5,0xbb,0x03,0x32,0xfd, 0xb6,0xf9,0xad,0x06,0x59,0xf8,0xe5,0xfe, // 2064
0xb5,0x07,0x60,0xf7,0x1b,0x06,0x9f,0x08, 0xdc,0xf2,0x0b,0xfa,0x01,0x07,0x0a,0xf6, // 2080
0xd9,0xfc,0xd6,0xfc,0x2f,0xf8,0xbe,0x01, 0xdb,0x05,0xaf,0x06,0xac,0xfb,0xbe,0xfe, // 2096
0x2f,0xfd,0xbf,0xfe,0x40,0xf6,0x92,0xfe, 0x50,0xf9,0xae,0xfa,0xb8,0xf5,0x4e,0x06, // 2112
0x55,0x00,0xf7,0x01,0x38,0xf5,0x5f,0xfc, 0x84,0x08,0x98,0x04,0xff,0x04,0xb3,0x00, // 2128
0x00,0xfa,0x9c,0x01,0xf6,0x05,0x56,0xff, 0x05,0x06,0x58,0xfe,0x79,0xfe,0x54,0xf5, // 2144
0xc4,0xf9,0xd6,0xf9,0x72,0xfb,0xb6,0x02, 0x7b,0xf8,0x1a,0x05,0x45,0x01,0x07,0xf9, // 2160
0x44,0xff,0x86,0x03,0xed,0xfa,0x05,0x07, 0x20,0x08,0x91,0xef,0x99,0x02,0xa7,0x07, // 2176
0x13,0xf8,0x90,0x00,0xb1,0x01,0xe1,0x02, 0xa2,0xf8,0x99,0xf8,0x68,0x03,0xc1,0x08, // 2192
0x51,0xfa,0x2e,0xfa,0xe9,0xf9,0xf0,0x01, 0xf6,0x04,0xf3,0xfd,0x43,0x09,0x27,0xf6, // 2208
0xa3,0x01,0x27,0xff,0x81,0xfd,0x59,0x02, 0xe8,0xf7,0xb8,0x09,0xff,0xf6,0x07,0x04, // 2224
0x2c,0x04,0x47,0xf7,0x89,0xfc,0x4e,0x03, 0xa4,0xf8,0x14,0x08,0xb4,0x02,0xc7,0x07, // 2240
0x73,0x05,0xc4,0xf7,0x4b,0xff,0xc5,0x07, 0x21,0x04,0xcf,0xfc,0x7b,0x08,0x31,0x0b, // 2256
0x1c,0x02,0x9d,0x02,0xcc,0x04,0x11,0x07, 0x4e,0x03,0x2e,0xf6,0xb2,0x01,0x16,0xfc, // 2272
0xe0,0xfd,0x7c,0xf8,0x29,0x01,0x44,0x0c, 0x43,0xfe,0x7d,0x03,0x33,0xfc,0x2b,0xf9, // 2288
0xfe,0xfe,0xbb,0x0b,0xae,0x02,0x69,0xfd, 0x90,0x02,0xcc,0xf6,0xb4,0xfc,0xba,0x02, // 2304
0x7c,0xf4,0xe6,0xfe,0x95,0x01,0x2f,0xfe, 0xd4,0x01,0xce,0xfa,0x73,0xf8,0xc8,0xfb, // 2320
0x7d,0x00,0x57,0xf9,0x1b,0x07,0xf8,0xf0, 0x2b,0xf8,0xe7,0xfa,0x98,0xf6,0x45,0x04, // 2336
0xfb,0xfd,0xb9,0xf0,0xdf,0xfc,0xce,0xf4, 0xb2,0x00,0x80,0xf2,0x4c,0x04,0xf8,0xf5, // 2352
0x2f,0xfc,0x04,0x03,0x1c,0xf1,0x37,0xef, 0x6e,0xfc,0x67,0xf4,0x41,0xfd,0xc1,0xf7, // 2368
0x96,0xfe,0x3e,0x01,0x60,0x0a,0x77,0xff, 0x93,0xfc,0x62,0xfd,0x34,0x04,0x24,0xf1, // 2384
0xe2,0xf9,0xd9,0xfd,0xe1,0xfb,0xb1,0xf9, 0x83,0xfe,0x94,0xf3,0x3d,0xf9,0x94,0x04, // 2400
0xc5,0xfd,0xec,0x04,0x86,0xef,0xe3,0xf9, 0x8a,0xf7,0x3e,0xfa,0x50,0xfb,0xa7,0xf5, // 2416
0x06,0xfd,0x7d,0xfd,0x87,0xfc,0xdf,0xf9, 0x47,0xf6,0xb0,0xf3,0xd8,0xfd,0x85,0x04, // 2432
0x97,0xfe,0xbe,0xf9,0xf5,0xfe,0xa8,0xf8, 0x58,0xf0,0xa6,0x07,0x2e,0xf8,0x1b,0x07, // 2448
0x9e,0xf5,0xe4,0x01,0xd4,0xee,0x2e,0x09, 0x23,0x02,0x67,0x09,0x35,0xfb,0x38,0xf8, // 2464
0x07,0x00,0xe1,0xf4,0x7e,0xf2,0xac,0xf1, 0xd8,0x03,0x04,0xfe,0xcc,0xf3,0x7d,0xfc, // 2480
0x3d,0xf5,0xc4,0xf0,0x60,0x04,0x3a,0xf5, 0x27,0x02,0x14,0xf5,0xb4,0x01,0x74,0xfa, // 2496
0x78,0xfa,0x0f,0xf2,0x6f,0xff,0xc3,0xf9, 0x73,0xfc,0x49,0xf6,0x63,0xfb,0xdc,0x01, // 2512
0x5c,0xfd,0x5c,0xec,0x62,0xf9,0xcd,0xec, 0x96,0xf5,0xcd,0xf1,0xe6,0xfd,0xc4,0xf9, // 2528
0x79,0xef,0x37,0xf8,0x51,0x02,0xe7,0x04, 0x62,0xf2,0x1d,0xf7,0xcd,0x03,0x48,0xf7, // 2544
0xab,0xfa,0x8e,0xed,0x34,0xff,0xa9,0xfb, 0xd4,0xfc,0x86,0x01,0x89,0xff,0xa0,0xf4, // 2560
0x90,0xf3,0x16,0xef,0x13,0xf7,0x59,0x04, 0x97,0x03,0x11,0xfd,0xdf,0xfe,0x0b,0xff, // 2576
0x43,0x4d,0x44,0x00,0x20,0x03,0x80,0x00, 0x10,0x0a,0x00,0x00,0x10,0x12,0x00,0x00, // 2592
0x01,0x01,0x00,0x00,0x0a,0x00,0x00,0x00, 0x00,0x00,0x00,0x00,0x00,0x00,0x00,0x00, // 2608
0x01,0x00,0x8c,0x00,0x01,0x00,0x01,0x00, 0x8c,0x00,0x01,0x00,0x00,0x00,0x00,0x00, // 2624
0x0a,0x00,0xff,0xff,0xff,0xff,0xff,0xff, 0x00,0x00,0x00,0x00,0x00,0x00,0x00,0x00, // 2640
0x00,0x00,0x00,0x00,0x00,0x00,0x00,0x00, 0x00,0x00,0x00,0x00,0x00,0x00,0x00,0x00, // 2656
0x00,0x00,0x00,0x00,0x00,0x00,0x00,0x00, 0x00,0x00,0x00,0x00,0x00,0x00,0x00,0x00, // 2672
0x00,0x00,0x00,0x00,0x00,0x00,0x00,0x00, 0x00,0x00,0x00,0x00,0x00,0x00,0x00,0x00, // 2688
0x00,0x00,0x00,0x00,0x00,0x00,0x00,0x00, 0x00,0x00,0x00,0x00,0x00,0x00,0x00,0x00, // 2704
0x43,0x4d,0x44,0x00,0x20,0x05,0x00,0x00, 0x90,0x0a,0x00,0x00,0x10,0x02,0x00,0x00, // 2720
0x01,0x00,0x00,0x04,0x0a,0x0c,0x07,0x0c, 0x00,0x00,0x00,0x00,0x00,0x00,0x00,0x00, // 2736
0x01,0x00,0x8c,0x00,0x01,0x00,0x01,0x00, 0x64,0x00,0x01,0x00,0x00,0x00,0x00,0x00, // 2752
0x0a,0x00,0xff,0xff,0xff,0xff,0xff,0xff, 0x00,0x00,0x01,0x00,0xc8,0x00,0x00,0x00, // 2768
0x00,0x01,0x02,0x00,0x18,0x01,0x00,0x00, 0x00,0x00,0x00,0x00,0x00,0x00,0x00,0x00, // 2784
0x00,0x00,0x00,0x00,0x00,0x00,0x00,0x00, 0x00,0x00,0x00,0x00,0x00,0x00,0x00,0x00, // 2800
0x00,0x00,0x00,0x00,0x00,0x00,0x00,0x00, 0x00,0x00,0x00,0x00,0x00,0x00,0x00,0x00, // 2816
0x00,0x00,0x00,0x00,0x00,0x00,0x00,0x00, 0x60,0x6d,0x00,0x00,0xc8,0x00,0x00,0x00, // 2832
0xb4,0xfa,0x00,0xfe,0x2e,0xfd,0x27,0x01, 0x2a,0xfd,0xa9,0x00,0x65,0xfc,0x63,0xff, // 2848
0x52,0x07,0x21,0x00,0xa9,0x00,0x53,0x01, 0x3b,0x04,0xb7,0xfe,0x79,0x03,0xcf,0xfe, // 2864
0x64,0x02,0x40,0xff,0x22,0xfe,0xb4,0x01, 0x0e,0xff,0x85,0xf9,0x8b,0xff,0xe9,0xff, // 2880
0x99,0xfe,0xcc,0x02,0x76,0x01,0xe3,0xfd, 0xac,0xfc,0xf3,0xfd,0xfe,0xfe,0xc5,0xfb, // 2896
0xf9,0xfe,0x86,0xfb,0x6a,0xff,0x0a,0xfe, 0x8f,0xff,0x41,0xff,0x86,0xfe,0x44,0x00, // 2912
0xa7,0xff,0x1f,0xfe,0x51,0x03,0xbe,0xf6, 0xeb,0x02,0x2f,0xff,0x6b,0xfe,0x0e,0x00, // 2928
0x1f,0xfb,0xb6,0x03,0x6a,0xfa,0x25,0x00, 0x51,0xfd,0x2e,0xff,0x05,0xf2,0x20,0x05, // 2944
0xb4,0x01,0xec,0xfd,0xcb,0xff,0x4f,0x02, 0x97,0xff,0x99,0xfe,0x23,0xfe,0x56,0x00, // 2960
0x56,0xfa,0x3a,0x02,0xf5,0x00,0xb7,0xff, 0xbc,0x0a,0x7f,0x01,0x14,0x00,0x73,0xfc, // 2976
0x90,0xfb,0xd2,0x00,0x34,0x00,0x0d,0x00, 0xf9,0xfa,0xb2,0x01,0x10,0xfe,0x34,0x03, // 2992
0xdd,0xff,0xac,0x02,0x46,0x00,0x5d,0xfe, 0xa4,0xfd,0xed,0x01,0xba,0xfc,0xb0,0xfa, // 3008
0xfc,0xff,0xc6,0xfa,0xe5,0xfc,0xb0,0xfc, 0x70,0xfc,0x28,0xff,0xf2,0xff,0xe2,0xff, // 3024
0xac,0xfd,0xcd,0x03,0x4c,0xff,0x47,0xfa, 0x5d,0x01,0x20,0xff,0x70,0x00,0xa4,0x02, // 3040
0x36,0x00,0x30,0xfc,0x83,0xfe,0xa2,0xfd, 0xbc,0xfc,0x4b,0x00,0x71,0x01,0x41,0xfe, // 3056
0xe9,0x03,0x75,0xfe,0x13,0x02,0xe8,0xf7, 0x24,0xfa,0x66,0xff,0x1b,0x01,0xd0,0x02, // 3072
0xad,0xfe,0x0a,0xfe,0xd5,0x04,0xd1,0xfc, 0xa2,0xff,0x20,0xfd,0x8b,0x00,0x1b,0xff, // 3088
0xb4,0x00,0xe5,0xfe,0x3f,0xfe,0x78,0xfd, 0x39,0x00,0x7d,0xf8,0xd2,0xfd,0xbb,0xff, // 3104
0x0c,0xfe,0x02,0x02,0x67,0xff,0x2e,0xff, 0x12,0xfd,0x41,0xfe,0x48,0x01,0x70,0xfd, // 3120
0x65,0x03,0x54,0xfe,0x65,0xff,0x71,0xff, 0xcd,0x02,0xc1,0xfb,0xdd,0x01,0xd4,0x02, // 3136
0xc4,0xfd,0x29,0x03,0x14,0x00,0xce,0xff, 0x0a,0xfc,0x6d,0xfe,0x64,0x02,0x34,0x02, // 3152
0xcc,0x00,0x0d,0x01,0xe0,0xfe,0x36,0x02, 0xba,0xfd,0xa2,0x03,0xef,0x00,0x61,0xfc, // 3168
0xcd,0xfe,0xba,0x00,0x20,0xfc,0x9c,0xfd, 0x1f,0x04,0x33,0xfe,0x7e,0xfe,0x0f,0x02, // 3184
0x74,0x03,0x8f,0xfb,0xa6,0x02,0x8f,0x02, 0x9e,0x00,0xb5,0x01,0x9d,0x00,0xad,0xff, // 3200
0xfc,0xfd,0x09,0x04,0x75,0xff,0x73,0x03, 0x75,0x04,0x8a,0x01,0xb0,0x02,0xd0,0xf8, // 3216
0x76,0xfe,0xa2,0xff,0xab,0xfc,0x58,0xfe, 0x09,0x04,0xf4,0xfe,0x70,0x01,0x06,0x0c, // 3232
0xcf,0x00,0xd2,0x02,0x52,0x01,0x81,0x03, 0x16,0xff,0x21,0xfd,0x56,0x02,0x8a,0xfe, // 3248
0xe3,0xfb,0x45,0xfd,0x78,0xfc,0x7d,0x00, 0x21,0x00,0x1f,0x00,0xf4,0xfb,0x19,0xf7, // 3264
0x6d,0x04,0xf5,0x00,0x2a,0xf9,0xa5,0x02, 0x90,0x02,0x95,0xf5,0x8c,0x02,0xb2,0xfc, // 3280
0x18,0xf8,0x13,0x01,0xde,0x00,0xef,0xf9, 0xf1,0xfd,0xcb,0xfe,0xe8,0xff,0x32,0xfd, // 3296
0x06,0xfc,0xff,0xfd,0xc3,0xff,0x5f,0xf9, 0x0c,0x04,0x14,0x08,0x70,0x02,0x78,0x00, // 3312
0xd6,0xfe,0xa1,0xff,0x8c,0xfa,0x84,0xfc, 0x1c,0x04,0x74,0x01,0x84,0x01,0xe8,0xfb, // 3328
0xf0,0xfd,0xa1,0xfd,0x7e,0xfe,0x97,0xfb, 0x2b,0x03,0x55,0x09,0xbf,0x00,0xef,0x00, // 3344
0xe1,0xfe,0x0c,0x00,0xaf,0x01,0x78,0xff, 0xe9,0xfd,0xe2,0xfe,0x5b,0xff,0x4c,0x01, // 3360
0x5e,0xfc,0xbd,0x02,0xe1,0xfe,0x2e,0xfb, 0xba,0xf4,0x2b,0xfe,0x3b,0x01,0x1f,0x04, // 3376
0xcc,0x01,0xdb,0xf7,0x79,0x02,0x19,0xfd, 0xb4,0x00,0x23,0x03,0x2f,0xff,0x95,0xfa, // 3392
0x45,0x06,0x90,0xfe,0x1e,0x01,0xb2,0xff, 0xa5,0x00,0xa6,0x00,0x08,0x00,0x4b,0x01, // 3408
0xae,0x06,0x6a,0x01,0x24,0x00,0xbd,0x06, 0x4d,0xff,0x69,0xfd,0xcc,0xff,0x8f,0x02, // 3424
0xf1,0x00,0x86,0xfb,0x1f,0x03,0x06,0x04, 0x61,0xfc,0xff,0xfd,0x4a,0x04,0x04,0xfb, // 3440
0xf5,0x00,0x82,0xfe,0x83,0x01,0x9b,0xff, 0x4d,0xff,0x8b,0x01,0xd5,0xf6,0x48,0xfc, // 3456
0xea,0x02,0xb5,0xff,0x11,0xfd,0x3f,0x02, 0x83,0x04,0x5f,0xff,0xc2,0xff,0xa7,0x03, // 3472
0xda,0xfb,0xe5,0xfd,0xd3,0x02,0xb2,0xf9, 0x9c,0xfe,0x3a,0x02,0xca,0xff,0x19,0xff, // 3488
0xbb,0xff,0x62,0xff,0xbe,0xfb,0xf6,0xfc, 0x2d,0xfe,0xd3,0xff,0x4b,0xfe,0x94,0xff, // 3504
0x24,0x01,0x9e,0xfb,0xd7,0x03,0xbf,0x06, 0x8e,0xfd,0x83,0xfe,0xa2,0xfc,0x44,0x00, // 3520
0x36,0x01,0x67,0x00,0xb3,0xfc,0xc6,0x04, 0x42,0x06,0x42,0xff,0x1e,0xff,0xf9,0x02, // 3536
0xea,0xfd,0x48,0x01,0xd3,0x02,0xf8,0x00, 0xa5,0x01,0xcb,0xfe,0x25,0xf3,0xcf,0x01, // 3552
0xfb,0xfd,0x91,0xfa,0x67,0xfd,0x40,0xff, 0x20,0xff,0x9c,0xff,0xba,0x01,0x8a,0xfd, // 3568
0x1c,0xff,0xdc,0xfd,0x52,0x06,0x39,0x00, 0xf2,0xfe,0xd2,0xff,0xb8,0xff,0x29,0xff, // 3584
0x5e,0x00,0x2b,0xff,0xea,0xf6,0xec,0xfe, 0x74,0xff,0x04,0xfd,0x04,0x03,0x1d,0x01, // 3600
0x11,0x04,0xee,0xf9,0xf2,0x00,0xe5,0xfd, 0xa8,0xfd,0x0a,0xff,0x57,0xfd,0xfb,0xfd, // 3616
0xd4,0xf9,0x1b,0x05,0x9b,0x00,0x64,0x01, 0x1e,0xff,0x3b,0x00,0x3b,0x06,0xfc,0x04, // 3632
0x98,0xfe,0x32,0xfb,0x53,0xff,0xb6,0xfc, 0x36,0x01,0x8c,0xff,0x44,0x01,0x04,0xff, // 3648
0xe4,0xfe,0xef,0x00,0xd4,0x00,0xb6,0x05, 0xf6,0x01,0x4a,0xfd,0xaa,0xfb,0x69,0x05, // 3664
0xf7,0x01,0xaf,0xfb,0x29,0x00,0x06,0xff, 0xd7,0x03,0x08,0xfe,0x0e,0xff,0x68,0x00, // 3680
0x91,0x05,0x69,0xff,0x31,0xfd,0x6d,0xff, 0x71,0xfe,0xc5,0xfe,0x21,0x02,0x29,0xfe, // 3696
0x7d,0xfd,0x19,0xfd,0x4b,0xff,0xb4,0x00, 0x97,0xfd,0x1d,0x00,0xbf,0xfe,0x4d,0xff, // 3712
0xdf,0xfc,0x81,0x03,0x17,0x02,0x11,0x00, 0x1f,0xff,0xf4,0x02,0x84,0x01,0xf2,0x01, // 3728
0xc6,0x00,0x51,0xfd,0x6a,0x05,0x76,0x03, 0x86,0x03,0x13,0xfe,0x7c,0x02,0xe4,0x00, // 3744
0x1a,0xfc,0xa7,0x02,0xdf,0xfe,0xba,0x00, 0x4a,0xfe,0x7b,0xfb,0xfc,0x00,0xd9,0x04, // 3760
0xae,0xfa,0x6e,0xff,0x4d,0xfd,0xc6,0x01, 0xa7,0xff,0xe3,0xfd,0x89,0x00,0xb1,0x02, // 3776
0x26,0x01,0xd7,0x00,0xf4,0x02,0xd8,0xfd, 0x64,0x04,0x20,0x02,0x19,0x00,0xc5,0x01, // 3792
0x1a,0xfe,0x75,0xfe,0x57,0x00,0xad,0x01, 0x4f,0x02,0x84,0x05,0x3f,0x00,0x4b,0xfe, // 3808
0x0a,0x03,0x0d,0xff,0x84,0x02,0x7d,0xfa, 0x18,0x02,0xd6,0xff,0x1c,0xfe,0x04,0x06, // 3824
0x8f,0xf5,0x3d,0xfd,0xe6,0x04,0x15,0x05, 0x47,0xfd,0xc0,0x00,0x48,0x01,0x2a,0xfd, // 3840
0xfa,0xf8,0xe7,0xfc,0x33,0xf8,0x58,0x08, 0x48,0x00,0xda,0xfd,0xf4,0x05,0x98,0x04, // 3856
0xd2,0x00,0xdf,0xf8,0x39,0xf6,0xcf,0xfd, 0xb2,0xf8,0x00,0xff,0xc5,0xff,0x7c,0x00, // 3872
0x27,0xff,0x91,0xfc,0x5f,0xfb,0x4c,0x00, 0x16,0x07,0x5a,0xfa,0xa3,0xfe,0x93,0xfe, // 3888
0x6e,0x02,0x36,0x02,0xbe,0x02,0xbb,0xfc, 0xa5,0xff,0x0f,0x07,0x3f,0xfe,0x16,0x01, // 3904
0xe4,0xfe,0xb4,0xf8,0x21,0xf8,0x08,0xfd, 0x53,0x04,0x3c,0x00,0x21,0x02,0x62,0x03, // 3920
0x96,0xfc,0x3c,0xfb,0xc6,0x04,0xcd,0xff, 0x42,0xfe,0x16,0xfd,0x79,0x01,0x9b,0x02, // 3936
0x75,0x01,0x9e,0x02,0x3b,0x04,0xac,0xf9, 0x5d,0xfe,0xb6,0xfc,0x87,0xfa,0x3e,0xfd, // 3952
0xca,0x02,0x2e,0xff,0x1a,0xfd,0xaf,0xfb, 0xc9,0x00,0x0e,0xfe,0xe8,0xff,0x13,0xf8, // 3968
0x5c,0x00,0xac,0xff,0xa6,0xff,0xc0,0x02, 0x34,0xfd,0x02,0x06,0x5c,0xf8,0x8a,0xfe, // 3984
0x32,0xff,0xa1,0xfc,0x32,0xff,0x8c,0x02, 0xb8,0xfe,0xb3,0x04,0xcd,0xff,0x6d,0x01, // 4000
0xd6,0xfe,0x94,0xfe,0xc2,0x02,0x4f,0xf8, 0xae,0xff,0x13,0x00,0x9f,0xfa,0xd9,0x02, // 4016
0x1f,0xfe,0x77,0x02,0x68,0xfe,0x69,0x01, 0xbb,0xfe,0xaf,0x00,0xd0,0xfe,0x5a,0xff, // 4032
0xf4,0xfd,0x16,0x00,0xd7,0xfc,0x4a,0x04, 0x0e,0xfd,0x67,0x03,0x9f,0x00,0x1b,0xfc, // 4048
0x9c,0x01,0xbc,0xff,0x9f,0xff,0x33,0xff, 0x45,0xff,0x3b,0xff,0xb0,0x03,0x4b,0xff, // 4064
0x40,0x02,0x60,0x05,0xb6,0xfd,0x67,0xfd, 0xba,0x00,0xf5,0x00,0xae,0x00,0x4c,0x02, // 4080
0xe7,0xfa,0x11,0x00,0x23,0xfa,0x05,0x01, 0xcf,0xff,0xdf,0xfb,0x2f,0xf9,0x25,0x03, // 4096
0xcb,0x01,0x63,0xfd,0x1a,0x01,0xde,0xff, 0x9d,0x00,0x97,0x00,0xab,0xff,0x31,0x00, // 4112
0x52,0x00,0xf6,0xff,0x22,0x00,0x0b,0x00, 0xd1,0xff,0x56,0xff,0x9f,0x02,0x25,0x02, // 4128
0xeb,0x02,0x6a,0x00,0xc6,0x03,0xa4,0x08, 0x70,0xf9,0x45,0x02,0x6e,0xff,0x52,0x01, // 4144
0x95,0xf7,0xc4,0xff,0x61,0xfb,0x46,0x03, 0x9c,0x02,0x98,0xff,0x85,0x03,0x5e,0x01, // 4160
0x76,0xff,0xbd,0x01,0x57,0x01,0x62,0xfa, 0x1d,0x02,0xde,0x00,0x24,0x02,0x10,0xfa, // 4176
0xe7,0xfd,0xda,0xff,0xb8,0xf9,0xd1,0x01, 0x8a,0x02,0x99,0x01,0xb5,0x01,0x3d,0x04, // 4192
0xd2,0xff,0x12,0x00,0x27,0x02,0xc5,0xfc, 0x8f,0x02,0x0f,0xff,0xde,0x02,0x8d,0x00, // 4208
0x0d,0x00,0xbd,0x05,0x44,0xfa,0xae,0x03, 0x9e,0x00,0xf7,0xf4,0xef,0x02,0x8a,0xff, // 4224
0x09,0xfd,0x63,0x03,0x4d,0x02,0x78,0x03, 0x8e,0x02,0xe6,0xff,0x82,0xfe,0xf0,0x01, // 4240
0xb3,0xfe,0x17,0xff,0x93,0x01,0x3c,0xfe, 0x50,0x01,0x67,0xfd,0xc9,0x00,0xf4,0xfd, // 4256
0xdc,0x03,0xd0,0xfc,0x9b,0xfe,0xd4,0xfd, 0x86,0xff,0x3a,0x03,0xe8,0x02,0x81,0x03, // 4272
0x29,0x03,0xc1,0xff,0x58,0xfc,0xb7,0xfa, 0xbb,0x0b,0x13,0xff,0xfe,0xfe,0xd3,0xff, // 4288
0x3b,0xfc,0xe3,0xfe,0xea,0x02,0x91,0xfe, 0xad,0xff,0x82,0xfe,0xa5,0x01,0x3e,0xfb, // 4304
0x61,0x00,0xa4,0xfe,0x77,0x02,0x64,0x02, 0x0c,0x01,0xb3,0x01,0x62,0xff,0xda,0xf9, // 4320
0xb0,0xff,0x5e,0xfe,0xdc,0xfd,0x0a,0x00, 0xc2,0xfa,0xf0,0x00,0x0d,0xfe,0x77,0xfd, // 4336
0x38,0xff,0x00,0x01,0x7c,0xff,0xe1,0x00, 0xdb,0x02,0xf3,0xfe,0x5c,0x01,0x8e,0x08, // 4352
0xf6,0xfb,0x67,0x00,0x6d,0x02,0x35,0x01, 0xbd,0x02,0x9f,0x02,0x78,0xfe,0xcf,0xf5, // 4368
0xa4,0x07,0x79,0x01,0x69,0x01,0xe8,0xfc, 0xfd,0x02,0x70,0x02,0xc5,0x02,0xb9,0xff, // 4384
0x6a,0x00,0x03,0x02,0xe9,0x03,0x43,0x00, 0x9f,0xff,0x5b,0x00,0xd1,0xfb,0x50,0xfc, // 4400
0xb9,0xfa,0x68,0xfd,0xb7,0xfe,0x16,0x03, 0x0f,0xff,0xa0,0x00,0x99,0xfe,0x3b,0x00, // 4416
0xff,0x02,0x80,0xf7,0x16,0x00,0x25,0xfc, 0x95,0xfb,0xc6,0xff,0xda,0xfe,0x23,0xfa, // 4432
0x7b,0xfc,0x17,0x02,0xbb,0xf7,0xa9,0xff, 0xa5,0x01,0x30,0xf9,0x36,0x04,0xfb,0x05, // 4448
0xb8,0x00,0x95,0xfe,0x75,0xff,0x6a,0xfd, 0x5f,0x05,0x2f,0x03,0x40,0xff,0xef,0xfe, // 4464
0x86,0xfb,0xd3,0xfe,0x2d,0x00,0xaa,0xfc, 0x5a,0x03,0xb1,0x04,0x0b,0xf9,0x41,0x01, // 4480
0xdc,0xfb,0x2c,0xfd,0xdb,0xfe,0x23,0x00, 0xdb,0x05,0xc2,0x00,0xbc,0x03,0x2c,0x02, // 4496
0x47,0xfd,0xd0,0x00,0x9c,0xfd,0xe4,0xff, 0x1f,0x01,0x47,0xfc,0xa5,0x00,0x4c,0x05, // 4512
0x84,0x02,0xea,0xfe,0xa7,0x04,0x1b,0xfd, 0x5f,0xff,0xff,0xfa,0xce,0xff,0xe2,0xfe, // 4528
0x2b,0xfb,0xd2,0x00,0x3f,0x02,0x19,0xfe, 0xce,0xfb,0xed,0x07,0x2a,0xfd,0xd4,0xff, // 4544
0x2a,0xff,0x15,0xff,0x06,0x00,0x9b,0xff, 0xaa,0xfd,0x1d,0x00,0x4c,0x00,0x92,0xfc, // 4560
0x2d,0xfd,0x76,0xfa,0xd9,0x01,0x12,0x00, 0x33,0x01,0x3b,0x00,0xa4,0x06,0xf8,0xf9, // 4576
0xe6,0x00,0xdf,0x01,0x9f,0x00,0x43,0xfe, 0xf1,0x00,0x39,0xff,0x71,0x04,0xe9,0x00, // 4592
0xbd,0xf6,0xca,0xf9,0xf8,0xfe,0xc9,0xfa, 0xc5,0xfa,0xdb,0xf7,0xd7,0xff,0xc6,0x00, // 4608
0x10,0xfe,0x92,0xfe,0x9a,0x00,0x4b,0xf4, 0xd8,0x00,0x18,0xfb,0xf9,0xff,0xd5,0xf9, // 4624
0x1c,0x03,0x2f,0xfc,0xfa,0xfe,0xac,0x04, 0x91,0xf8,0xe2,0x00,0x75,0x01,0x10,0x01, // 4640
0x48,0x00,0x79,0x05,0x44,0x00,0x71,0xec, 0x57,0xf6,0x4c,0xff,0x7d,0xff,0xf8,0x01, // 4656
0xfb,0xfc,0x9a,0x02,0x67,0xfc,0x05,0x04, 0x1b,0x03,0xcd,0xf8,0x11,0x03,0x42,0x05, // 4672
0x43,0xf9,0xf2,0xfc,0x63,0x03,0x43,0x00, 0xf6,0xf7,0x30,0xfd,0x31,0x01,0x21,0xf9, // 4688
0x8e,0xfe,0x5a,0x02,0x8e,0x03,0xa9,0x03, 0x2e,0x02,0x54,0x01,0x5e,0xfa,0xc0,0xfe, // 4704
0xa2,0xfd,0xf6,0xfa,0xa8,0x04,0x86,0xff, 0x40,0xfb,0x44,0x00,0x8b,0xff,0xc9,0x00, // 4720
0x1b,0x04,0x41,0x03,0x28,0xfc,0x8c,0x00, 0x2e,0xfb,0x82,0xfe,0xbb,0x01,0xde,0xf9, // 4736
0x0d,0x03,0x2f,0x02,0xce,0xfc,0x0f,0x04, 0x58,0xfe,0xff,0xfe,0x29,0x07,0x54,0xff, // 4752
0x0e,0x06,0x9b,0xff,0x2f,0x00,0xe5,0xfd, 0xbe,0xfe,0x72,0x03,0x54,0x03,0x4c,0x01, // 4768
0x72,0x01,0x36,0x03,0x46,0x01,0xd1,0x03, 0x24,0xfe,0xee,0xfd,0x61,0x03,0xc5,0xfa, // 4784
0x7b,0xf8,0xc6,0xfc,0x82,0xfe,0x3b,0xff, 0x09,0xf9,0x21,0xff,0x95,0x07,0x4c,0x00, // 4800
0xb5,0xff,0x5c,0x00,0x18,0xfe,0x0f,0x00, 0x8c,0x02,0x55,0xfe,0xd9,0x00,0x3c,0x01, // 4816
0x75,0xfc,0xe6,0x04,0x28,0xff,0x89,0x03, 0x8d,0xfc,0xc6,0xfb,0x9b,0xff,0xa2,0xff, // 4832
0xe3,0xfe,0x99,0xff,0x2d,0x00,0x0e,0x00, 0xdf,0x01,0xbe,0x00,0xb5,0xff,0x7d,0xfe, // 4848
0x22,0x00,0x26,0xfc,0xe4,0x02,0x67,0x03, 0x8d,0x00,0xa5,0xfb,0x97,0x00,0x6b,0x01, // 4864
0xd4,0xfc,0xcb,0xfc,0xf8,0x00,0x93,0xfa, 0xe5,0xfb,0xc2,0x02,0x71,0xff,0xb8,0xff, // 4880
0x8b,0xff,0xb6,0x00,0xb2,0xff,0xee,0x01, 0x9f,0x03,0x4c,0xfc,0x91,0xfd,0x2b,0x02, // 4896
0x09,0x01,0x32,0x03,0x22,0x01,0x99,0x03, 0xaa,0x05,0x6a,0xff,0x47,0x01,0x31,0xf5, // 4912
0x77,0xff,0xf7,0x08,0xb0,0x01,0xf7,0xfd, 0xaa,0x02,0x05,0x01,0xd0,0xfd,0xd5,0xf9, // 4928
0x26,0xfd,0x6d,0x01,0x12,0xff,0xa0,0xfe, 0x98,0x00,0x4e,0x00,0xab,0x03,0x4c,0x00, // 4944
0x53,0xfa,0x8f,0xfb,0x74,0xff,0x22,0xfc, 0x4d,0x02,0xa4,0xfd,0xb0,0x02,0x04,0x01, // 4960
0xb0,0x05,0xbd,0xff,0xf8,0xfc,0xcb,0x04, 0xec,0x00,0x35,0x03,0x0a,0xfe,0x84,0xf8, // 4976
0x26,0x00,0x6b,0x02,0xd5,0xfe,0xf6,0x02, 0x88,0xfd,0x18,0x05,0x36,0xfd,0x95,0xff, // 4992
0x35,0xf1,0x53,0x01,0x10,0x04,0x1e,0x05, 0x00,0x01,0x02,0x00,0x6a,0xfa,0xe1,0xfe, // 5008
0x03,0x03,0xf4,0x02,0x5d,0xff,0x78,0x02, 0xfe,0xfe,0xda,0xfc,0xcd,0x01,0x99,0x03, // 5024
0x2b,0x05,0x9c,0x00,0x19,0xfb,0xc6,0xfc, 0x95,0x08,0x42,0xfd,0xe2,0x00,0xbc,0xff, // 5040
0xed,0xfd,0x6d,0x02,0xf4,0xff,0x38,0x01, 0x11,0x01,0x51,0xff,0x41,0x01,0x8d,0x00, // 5056
0xa6,0xfd,0x27,0x00,0x1c,0xfd,0xba,0xff, 0x67,0xf9,0x47,0x02,0xf0,0xfb,0x0c,0xff, // 5072
0xe4,0x02,0x66,0xfc,0x61,0x01,0xff,0xff, 0xad,0xfd,0xf6,0xff,0xb4,0x02,0xda,0x03, // 5088
0x9e,0x05,0x42,0x00,0x4e,0xfe,0xfb,0x01, 0x10,0xff,0x26,0xff,0x95,0x01,0x94,0x01, // 5104
0x9b,0x01,0xe8,0x01,0x80,0x02,0x24,0xfa, 0x09,0x03,0xae,0x00,0xe3,0xff,0x05,0x00, // 5120
0xa2,0x00,0x71,0xf7,0x71,0xfd,0x2e,0x01, 0x0c,0x01,0x66,0x00,0x76,0x00,0x1f,0xfe, // 5136
0x3f,0xf7,0xd3,0xff,0x28,0xfe,0x2e,0x00, 0xcf,0x00,0xf3,0xfe,0x91,0xfe,0x0b,0xfd, // 5152
0xcc,0x07,0xd7,0x02,0x4e,0xfe,0x42,0x00, 0x37,0x00,0x43,0xfe,0xf2,0x02,0x76,0x02, // 5168
0xe8,0x02,0x25,0x02,0xc0,0x00,0xcf,0x04, 0x62,0x02,0x50,0x05,0xe4,0xfb,0x72,0x02, // 5184
0x38,0xfc,0xc3,0x02,0xa6,0xfd,0xc2,0xf9, 0xe9,0xff,0x4c,0xfc,0xcb,0xf1,0xeb,0xff, // 5200
0xc7,0xfc,0x27,0xff,0x82,0xfd,0x07,0xfe, 0x32,0x00,0x6c,0xf9,0x4d,0xfc,0xc9,0x01, // 5216
0x6c,0x00,0x50,0xfb,0x42,0x01,0x48,0x03, 0x33,0x05,0x91,0x02,0x82,0x01,0xf9,0x00, // 5232
0x55,0xff,0xaa,0xfd,0x57,0xff,0x9e,0xfe, 0xf2,0x01,0x60,0x03,0x8f,0x01,0xbe,0x02, // 5248
0x9a,0x01,0x05,0x03,0x47,0xff,0xc7,0xfe, 0x5a,0xfe,0xac,0x00,0x76,0x01,0xbb,0xff, // 5264
0x39,0x01,0x89,0xfc,0x84,0xfd,0x22,0xff, 0x22,0x03,0x18,0x02,0xac,0x03,0xc4,0xfe, // 5280
0xe0,0xfd,0xf3,0x00,0xd6,0x02,0x1f,0x02, 0xb7,0xff,0x1b,0x04,0x47,0x00,0xff,0x02, // 5296
0x0c,0xff,0x14,0xff,0xbe,0x03,0xfc,0x00, 0x27,0xff,0x28,0x00,0x90,0x00,0xa1,0xfd, // 5312
0x25,0x03,0xb7,0x00,0x63,0xf5,0xc5,0x00, 0x9f,0xfe,0x57,0x03,0x75,0xfd,0x36,0x01, // 5328
0x64,0x01,0xb1,0xfd,0x0c,0x00,0x5b,0xff, 0x98,0x02,0x73,0x01,0xf5,0xfb,0x1e,0xfd, // 5344
0x36,0x02,0xc7,0xfb,0x48,0x00,0xaa,0x03, 0xb3,0x02,0x05,0x00,0x1b,0xfd,0xab,0xfd, // 5360
0x84,0x02,0xc4,0xff,0x85,0xff,0xfa,0xfd, 0xdb,0x04,0x9d,0x02,0xc7,0xf9,0x91,0xfe, // 5376
0x3d,0xf9,0x13,0x00,0x2e,0xfc,0xfa,0x00, 0xcb,0xfe,0x3a,0xfe,0xad,0x00,0x76,0x00, // 5392
0x6b,0x01,0x06,0x01,0xbf,0xfe,0x6f,0x00, 0x5c,0xff,0xa6,0xfc,0x2f,0x01,0xec,0xff, // 5408
0x62,0xff,0xb0,0xff,0xef,0xfc,0x94,0xfe, 0x51,0xf8,0x10,0x02,0xb9,0xf8,0xcf,0xf9, // 5424
0x43,0x02,0x46,0x02,0xf2,0xfe,0x59,0xfe, 0xfa,0xfe,0x2b,0x04,0x4e,0xfd,0xed,0x00, // 5440
0x3d,0x04,0xf8,0xfe,0x0c,0x02,0xd1,0xfd, 0xb4,0x00,0xd5,0xfc,0xee,0x03,0xad,0xff, // 5456
0x83,0x02,0x20,0xfe,0xcb,0x01,0x01,0x01, 0x11,0xfb,0xcb,0xfb,0xd2,0xff,0x0f,0xfc, // 5472
0x71,0xfd,0xda,0xfb,0xb6,0xf8,0x17,0x02, 0x42,0xff,0xb0,0xfc,0x7e,0xf6,0x78,0x05, // 5488
0xf9,0xfd,0x5b,0x00,0x09,0xfe,0xc9,0xfb, 0xd3,0xfc,0x88,0xff,0xb2,0xff,0xe7,0xff, // 5504
0x28,0x03,0x74,0xff,0xc2,0xfb,0x57,0x01, 0x44,0x00,0xc2,0x02,0xd0,0xff,0x03,0x02, // 5520
0x08,0x00,0xb6,0x00,0xa8,0x01,0x92,0xfe, 0x7e,0xfe,0x63,0xfd,0x83,0x01,0x7f,0x02, // 5536
0xd7,0x00,0xe6,0xff,0x30,0x00,0x84,0xfb, 0xd7,0x02,0x42,0xff,0x0c,0xfc,0xec,0xff, // 5552
0xe3,0xfb,0x5d,0xfd,0xc3,0x02,0x8e,0xfa, 0xdc,0xfa,0x41,0xfe,0x73,0x00,0x38,0xfe, // 5568
0x85,0x01,0xcf,0xfd,0x0e,0xff,0x9c,0x00, 0xd9,0xff,0xe4,0x02,0x82,0x01,0x3f,0xfe, // 5584
0x93,0xff,0x2b,0x02,0xe3,0xfe,0xa1,0x06, 0x14,0xfc,0xb5,0x02,0x34,0xfb,0x4f,0xfd, // 5600
0x05,0xf9,0x70,0x02,0x85,0xfa,0x91,0x00, 0xa1,0x01,0x1d,0xfc,0xf4,0xfa,0xa0,0xfe, // 5616
0x9c,0x01,0x8e,0xff,0x74,0xfa,0x6f,0x03, 0xed,0x03,0xf5,0xfc,0xdd,0xfc,0x26,0x01, // 5632
0x6a,0xfd,0xed,0x00,0x88,0xff,0x46,0xfd, 0x95,0x01,0x6c,0x02,0xe4,0x00,0x11,0x00, // 5648
0xb4,0x02,0x7d,0xfc,0xf9,0x01,0xf3,0x02, 0x5e,0xf9,0xed,0x00,0x30,0x00,0xc7,0xff, // 5664
0xcb,0x06,0x98,0xfe,0xe5,0xfe,0xd0,0x01, 0x2c,0xfd,0xcd,0x00,0x1c,0x01,0xdd,0x00, // 5680
0xd6,0x01,0xfd,0x02,0x26,0xfc,0xbc,0x00, 0xdf,0x03,0x4c,0x01,0xfd,0x06,0xcb,0x05, // 5696
0xe2,0x00,0x5f,0x00,0x3e,0x01,0x49,0x00, 0x67,0x02,0xf5,0xff,0x2b,0x00,0x08,0xfe, // 5712
0x6c,0xff,0x0b,0x00,0x50,0xff,0xe7,0x02, 0x12,0x02,0x8f,0xf9,0x41,0xf3,0xf3,0xfe, // 5728
0x0b,0xff,0x96,0xf5,0x71,0xfe,0xb8,0xf2, 0xea,0x00,0xa2,0xff,0xe0,0x02,0x82,0x01, // 5744
0x54,0xfa,0xd3,0xfd,0x0d,0x00,0xb8,0x00, 0x94,0xf8,0x06,0x04,0x8c,0x02,0x58,0x00, // 5760
0x0a,0x02,0x64,0x06,0x2c,0x02,0x31,0xfb, 0xd0,0xfe,0x01,0x00,0x4d,0x00,0x18,0xfb, // 5776
0x90,0xfd,0xec,0xfe,0x21,0x03,0x3c,0x03, 0x3e,0x03,0xb1,0xff,0x44,0x00,0xa9,0xfa, // 5792
0x58,0x00,0x23,0xf9,0xd2,0xfa,0x76,0x00, 0x99,0xfc,0xbc,0x00,0x7b,0xfd,0x6b,0x00, // 5808
0x41,0xfe,0xd5,0xfd,0x1b,0x07,0x76,0x06, 0xe2,0x00,0xf6,0x03,0xbb,0x04,0x13,0xfb, // 5824
0x18,0x01,0x7e,0xf8,0xe4,0xfd,0xc9,0xff, 0x12,0x05,0x04,0xff,0x9c,0xfe,0x83,0xfa, // 5840
0xd3,0xfe,0x2b,0xff,0x0d,0x00,0x33,0xf9, 0x32,0x07,0xce,0x01,0x52,0x01,0xb6,0x02, // 5856
0x62,0x02,0x6a,0xf7,0x79,0xfe,0xab,0xfd, 0x5a,0x03,0x40,0xff,0x6c,0x04,0x32,0xff, // 5872
0x69,0x06,0x05,0x02,0x9d,0xfe,0x9e,0x02, 0xc7,0xfa,0x92,0x02,0x25,0x01,0x8a,0xfe, // 5888
0xb9,0x00,0x4d,0xff,0x18,0x01,0x19,0x01, 0x5c,0xfa,0x8e,0x01,0x05,0x04,0x72,0xfe, // 5904
0x21,0x00,0x52,0xff,0x32,0xfb,0xb5,0x02, 0xfc,0xfe,0x83,0x01,0xab,0x00,0x47,0x02, // 5920
0xee,0x00,0x49,0x01,0x5d,0x00,0xe6,0x02, 0xc0,0xfb,0xf3,0xfe,0x02,0x03,0x0b,0xfa, // 5936
0x8e,0x00,0xe3,0x00,0xa1,0x01,0xa2,0xfe, 0xe1,0xfd,0xe3,0xfd,0xb3,0x01,0x8e,0xfc, // 5952
0x82,0x00,0xed,0xff,0x86,0xff,0x74,0x04, 0x1f,0xfd,0xea,0x00,0x75,0x02,0x73,0x03, // 5968
0x1d,0x01,0x45,0xfd,0x74,0x00,0x2a,0xfb, 0x93,0x01,0x40,0xfd,0x0a,0x01,0x13,0x05, // 5984
0xb5,0x05,0xdc,0xff,0xfa,0xfb,0x79,0xfd, 0xae,0x04,0xa6,0x01,0xfa,0xff,0x65,0xff, // 6000
0x14,0xff,0x39,0x00,0xf4,0x01,0x97,0xff, 0x8a,0x00,0x00,0x01,0x0a,0x01,0x36,0x02, // 6016
0x44,0xfd,0x69,0x00,0x35,0x01,0x86,0xfe, 0xcb,0x02,0xa9,0xff,0x86,0x05,0x8f,0x05, // 6032
0x80,0xfd,0x07,0xfe,0x1b,0xff,0x1e,0xff, 0x8f,0xfd,0xf5,0x06,0xdf,0x00,0x62,0x02, // 6048
0x28,0xf9,0xdc,0xf9,0xa1,0x01,0x72,0xff, 0x1c,0x04,0x27,0xf8,0x2a,0xff,0x71,0xff, // 6064
0xe1,0x02,0x73,0xff,0xdf,0x00,0x50,0x00, 0xc2,0xff,0x1b,0xfd,0xdd,0x01,0x4e,0xf4, // 6080
0x1e,0xfd,0x6c,0x01,0x8f,0xfb,0xbd,0xff, 0x72,0xfb,0x29,0x00,0x79,0x03,0x97,0xff, // 6096
0x5b,0xfa,0x38,0xff,0x44,0xff,0x44,0x04, 0x22,0x00,0x0b,0xff,0x81,0x00,0x4e,0xff, // 6112
0x49,0x02,0x8a,0x01,0xf6,0xfe,0xc5,0x01, 0x7a,0x01,0x6a,0x01,0xc5,0xff,0x17,0x02, // 6128
0x8e,0xff,0x17,0x01,0x7e,0x00,0x30,0x02, 0x0d,0x02,0xbe,0xfd,0xc5,0x03,0xa3,0x03, // 6144
0xab,0xff,0x6b,0xfe,0x35,0x00,0x21,0x02, 0xc2,0x03,0x88,0x01,0x64,0x00,0xdc,0x00, // 6160
0x5c,0x04,0xb4,0x03,0x94,0x04,0x17,0x00, 0x40,0x02,0x71,0xfb,0xea,0xfe,0xbf,0x02, // 6176
0x92,0x00,0xc6,0xff,0x92,0x00,0x2d,0xff, 0xb5,0x02,0x63,0x01,0xaf,0x00,0x96,0xff, // 6192
0x24,0x01,0x3f,0x02,0x6a,0xfa,0x0b,0xf9, 0x0a,0x01,0x22,0x00,0x6c,0xf4,0x10,0x00, // 6208
0xdc,0xff,0xf5,0x01,0x57,0xfe,0x2b,0x03, 0x46,0xfe,0x06,0x0a,0xa1,0xfc,0x71,0x02, // 6224
0xae,0x02,0xbb,0xfd,0x94,0xfe,0x19,0x02, 0xa9,0xfb,0xea,0x00,0x30,0x02,0x36,0x03, // 6240
0xfa,0xfb,0x1a,0x02,0x28,0xff,0x90,0x00, 0xb4,0xff,0x29,0xff,0x1f,0x00,0xa7,0x04, // 6256
0x48,0xfb,0x14,0x02,0x9b,0xfe,0x5f,0xff, 0xa7,0xfd,0xfa,0x00,0xe5,0x01,0xe3,0x03, // 6272
0x5f,0x00,0x0d,0x05,0x5f,0xff,0x80,0x05, 0xcc,0x00,0x65,0xfc,0xba,0xfe,0x88,0x01, // 6288
0xea,0x00,0x65,0x01,0x13,0x00,0xcc,0xff, 0xb4,0x00,0x50,0xfd,0x3c,0x04,0xdb,0x00, // 6304
0x40,0x03,0xa7,0x01,0x4b,0xff,0xcf,0x10, 0x04,0xfe,0x49,0x05,0xa0,0xfe,0x4f,0x03, // 6320
0xcb,0x02,0x83,0x08,0xca,0x01,0x0b,0x01, 0x3e,0xfb,0x7c,0x02,0x32,0xfe,0x51,0x04, // 6336
0x62,0x03,0x89,0x03,0x0a,0x02,0x35,0xfe, 0xe9,0x00,0x70,0xf8,0x7d,0x03,0x03,0x02, // 6352
0x71,0x03,0x92,0xfd,0x0e,0x06,0x72,0x01, 0x23,0xfe,0x18,0x02,0x57,0x03,0xb9,0x07, // 6368
0x54,0x00,0x2c,0xfc,0x51,0x03,0x1e,0xfe, 0x11,0x01,0x47,0x05,0x03,0x00,0xeb,0x01, // 6384
0x23,0x00,0xcd,0xff,0x80,0xfe,0x51,0xfd, 0x22,0xff,0xbf,0xff,0x39,0xfe,0xaf,0x06, // 6400
0xe6,0xff,0xbc,0x00,0xa0,0xff,0x74,0x01, 0x7f,0xff,0x79,0x07,0xab,0x03,0x0d,0x03, // 6416
0xba,0x01,0x98,0x08,0xed,0x02,0x31,0x03, 0x5e,0x05,0x20,0x01,0x4f,0xfa,0x8d,0x03, // 6432
0xae,0x02,0x27,0xfd,0x2f,0x00,0x7b,0x05, 0x8e,0x02,0xab,0x01,0xcc,0xfd,0xef,0x01, // 6448
0x3d,0x02,0x1e,0xf9,0xac,0x02,0x1c,0x02, 0x42,0xfe,0xeb,0x02,0x75,0x01,0xf3,0xff, // 6464
0xec,0xfa,0xa0,0xfc,0xe6,0xff,0x2f,0x00, 0xf6,0x04,0x44,0xf3,0xd8,0xff,0x9e,0xfc, // 6480
0x44,0xfd,0x8a,0x00,0x30,0xff,0xe8,0xfc, 0x53,0x00,0xf1,0x00,0x91,0x00,0xce,0xfe, // 6496
0x6c,0xfe,0x3d,0x01,0xa4,0xfe,0xa8,0x01, 0xd2,0x00,0x81,0xfe,0x9b,0xfe,0x30,0xfc, // 6512
0xfe,0xfd,0xed,0xff,0xb6,0xfe,0xef,0x01, 0x63,0xf9,0x69,0xfd,0x31,0x02,0x22,0xfb, // 6528
0x1a,0xfb,0xa0,0xff,0x3e,0xfa,0x29,0x00, 0xc7,0x02,0xb9,0x01,0x74,0xff,0x1f,0x02, // 6544
0xbe,0xff,0xc9,0xff,0x8c,0xff,0x77,0x03, 0xff,0xfe,0x7e,0x00,0x80,0x01,0x97,0xff, // 6560
0xe4,0xfb,0x22,0x01,0x22,0x00,0x7f,0x00, 0x6e,0x00,0x38,0x01,0xd8,0x00,0x49,0xf6, // 6576
0xa9,0xfe,0x35,0xff,0x71,0xfc,0xf1,0xff, 0x93,0x04,0x2a,0xfb,0xce,0xff,0x2b,0x07, // 6592
0x6c,0x09,0x27,0x01,0xcb,0xff,0x0d,0x03, 0xa8,0xfe,0xe8,0x02,0x59,0x01,0x29,0x00, // 6608
0xff,0x03,0x43,0xf4,0x79,0xfd,0xd7,0xff, 0x6b,0xfe,0x5c,0xfb,0xd8,0xfe,0xb2,0x00, // 6624
0xe6,0xfe,0x40,0xfd,0x57,0xfc,0xcf,0x00, 0x17,0xfe,0xc6,0xfd,0xff,0x02,0x9a,0xfe, // 6640
0x51,0xfb,0xd5,0xf9,0xa6,0x02,0x02,0xf5, 0x55,0xf9,0x42,0xfe,0x5b,0x02,0x1e,0x02, // 6656
0x86,0xf1,0x7a,0xff,0xd9,0xff,0x12,0x00, 0x5c,0x00,0x0c,0xfe,0x73,0x04,0x18,0x01, // 6672
0x1c,0x00,0x53,0xff,0x76,0x01,0xbf,0x02, 0xc5,0xff,0xdd,0x03,0xf2,0x02,0x0c,0x03, // 6688
0xe6,0xfe,0xe3,0xfe,0x63,0x01,0xcc,0xf7, 0x31,0x04,0x02,0x01,0x04,0xf6,0x32,0x03, // 6704
0x28,0xff,0x35,0xff,0x34,0x02,0xf7,0xff, 0x70,0x01,0xeb,0x00,0x91,0x01,0xf3,0xff, // 6720
0xf7,0x00,0x84,0xfb,0x4a,0x01,0x75,0x00, 0x40,0x00,0xc3,0x01,0xb7,0x01,0x7d,0x01, // 6736
0x7d,0x00,0x4d,0xfd,0xb8,0x01,0x1c,0x01, 0x97,0xfe,0xa1,0x00,0xbe,0x02,0xd9,0xff, // 6752
0x49,0x00,0x3b,0x01,0x54,0x05,0x9c,0xff, 0xe6,0x04,0x23,0x03,0x3f,0x00,0xd4,0x03, // 6768
0x02,0xfe,0x73,0xfe,0xd1,0x02,0x2e,0x00, 0xf5,0x02,0x5a,0x00,0xb3,0x02,0x95,0x00, // 6784
0xf3,0x02,0xb1,0xf9,0x00,0x01,0x02,0x01, 0x25,0xfe,0xb5,0xfe,0xcf,0xfb,0xe8,0xfe, // 6800
0xb7,0x06,0x17,0x02,0x79,0x03,0xb1,0x02, 0x67,0x02,0x0d,0xff,0x35,0xfc,0x53,0x01, // 6816
0x5f,0x04,0x27,0x03,0x26,0x00,0x4b,0xfd, 0x9c,0x03,0x4b,0x03,0x7f,0xfe,0x28,0x01, // 6832
0x52,0x01,0x50,0x03,0x3c,0x00,0xf2,0xfd, 0xa6,0xfc,0x08,0xfe,0xe9,0x01,0xd6,0xff, // 6848
0x64,0x05,0x07,0x02,0xab,0xfd,0x53,0xff, 0xf8,0xf8,0x98,0xfc,0x7f,0xff,0x6b,0x00, // 6864
0x00,0xfe,0x13,0xfd,0x3e,0x01,0xde,0xfa, 0xdf,0xfd,0xe7,0xfe,0xd4,0xff,0x4b,0x02, // 6880
0x95,0xfc,0x37,0xf3,0x3b,0xfe,0xd9,0x00, 0x8b,0x00,0xf3,0xfd,0x43,0x00,0x48,0xff, // 6896
0xda,0x01,0x95,0xfe,0x2d,0xff,0x0c,0x00, 0xde,0x04,0x4f,0xfe,0x5f,0xff,0x2a,0x04, // 6912
0x74,0x04,0x0b,0x02,0x66,0x03,0x81,0xff, 0xb9,0xfc,0x56,0xff,0x1c,0x01,0x6a,0x05, // 6928
0xd6,0x01,0x16,0x02,0x81,0xf5,0xb3,0x01, 0xa2,0xfd,0xee,0x00,0x35,0x00,0xbf,0x01, // 6944
0x01,0x02,0x08,0x00,0x28,0xff,0xce,0x00, 0xcf,0xfc,0x49,0x01,0xd5,0x01,0x24,0xfc, // 6960
0x61,0x00,0x71,0x00,0x7e,0x02,0xd8,0xfc, 0x0d,0x02,0x0f,0x01,0x1c,0xfe,0x93,0x01, // 6976
0xce,0xff,0xe4,0xfd,0x78,0x02,0xe0,0x01, 0x99,0x02,0x75,0x00,0xa2,0xff,0xb2,0xf8, // 6992
0x22,0xf9,0x9e,0x03,0x32,0x02,0x8b,0xfd, 0x1b,0xfd,0xd9,0x02,0x06,0xfe,0xd5,0x01, // 7008
0x3f,0x00,0xf2,0xfe,0x0a,0xfb,0xe5,0xf0, 0x17,0x03,0x19,0x01,0xdf,0xfd,0xe7,0x01, // 7024
0x77,0xff,0x69,0x02,0x15,0x00,0xac,0x03, 0xa2,0xfd,0x24,0x00,0xbb,0xfd,0x20,0x01, // 7040
0x73,0x00,0x9c,0x01,0x23,0xff,0x39,0xff, 0x66,0x02,0x49,0x01,0xd0,0xfc,0xd3,0xff, // 7056
0x04,0x01,0x34,0xfe,0x1a,0x02,0xcf,0xfe, 0x5d,0x03,0xe5,0xfe,0x93,0xff,0xa7,0x00, // 7072
0x90,0xff,0x5f,0x02,0x38,0x00,0x87,0xf8, 0xe3,0x00,0x54,0xfb,0x7d,0x00,0x82,0xff, // 7088
0x62,0x03,0xe8,0x01,0xa7,0xfe,0x4d,0x02, 0x55,0x01,0x92,0x03,0x62,0xff,0x81,0xf9, // 7104
0x9b,0x04,0xd2,0xff,0x14,0x02,0x35,0x05, 0x22,0xfd,0x85,0xfc,0x7c,0xfd,0x18,0xff, // 7120
0x03,0x03,0x7a,0x04,0xff,0x00,0xbc,0xff, 0xd8,0xff,0x3e,0x01,0x1d,0x01,0x3e,0xfb, // 7136
0xbe,0x00,0xf8,0xfc,0x3e,0xff,0xed,0x02, 0x33,0x01,0x4c,0x00,0xa7,0x00,0x73,0x06, // 7152
0xdc,0xf7,0xcc,0x03,0x49,0x01,0x99,0xfb, 0x0b,0x01,0x56,0x01,0xd2,0xfb,0x31,0x00, // 7168
0x3d,0xfc,0x84,0x00,0x3c,0xff,0x3a,0xfe, 0x6f,0xfd,0x15,0x01,0xd9,0x03,0xac,0x00, // 7184
0xdb,0xfe,0x73,0xfe,0x58,0x00,0x12,0x02, 0x61,0xfd,0xc2,0x01,0x66,0xfd,0x02,0x00, // 7200
0x9c,0xff,0x51,0x02,0x1e,0xff,0xf1,0x00, 0x8c,0x00,0x86,0x02,0xe3,0x00,0xbf,0x02, // 7216
0x5d,0x02,0xac,0xf6,0x94,0xfb,0x66,0x01, 0xf8,0xfb,0x14,0xff,0x2e,0xfb,0xd5,0xff, // 7232
0xd7,0xfe,0x12,0xfe,0xda,0xff,0x47,0x01, 0x26,0x01,0xac,0xfa,0x98,0x02,0x3b,0x01, // 7248
0x7c,0x00,0xdd,0x00,0x5b,0x02,0xf2,0xff, 0xdd,0x02,0xd3,0x00,0x47,0x01,0x02,0x02, // 7264
0x12,0x02,0x66,0x02,0x00,0x01,0x9a,0x04, 0xd5,0xfd,0xd2,0x01,0xd2,0xfd,0x59,0x07, // 7280
0x8a,0xf9,0x16,0x00,0x85,0x01,0x21,0x00, 0x8b,0xfe,0xb9,0x00,0xf3,0x01,0x80,0x01, // 7296
0x2e,0x01,0xac,0xfe,0xdf,0x00,0x2f,0xff, 0xe0,0xff,0xd5,0x02,0x24,0xfe,0x9f,0xfc, // 7312
0x03,0xfd,0x59,0x02,0xfa,0x00,0x68,0x02, 0x66,0x02,0xd1,0xfd,0x0e,0x04,0xb7,0x03, // 7328
0x15,0x00,0xf7,0xfe,0x2f,0xfc,0xea,0x00, 0xcd,0xfd,0xf7,0x02,0x79,0x00,0x1d,0x05, // 7344
0x0d,0xfd,0xb8,0x01,0x8f,0x02,0x15,0x01, 0xa5,0x01,0x09,0x08,0x06,0x03,0x20,0x04, // 7360
0x0a,0x03,0x55,0xfe,0xe4,0x01,0x6a,0xff, 0xad,0xff,0x44,0x01,0x48,0x03,0x41,0xfd, // 7376
0x03,0xfd,0x4f,0xfc,0x92,0xfb,0xd2,0xfe, 0x54,0xff,0x59,0xfe,0x42,0x01,0x3b,0x02, // 7392
0xf6,0x04,0x25,0x00,0x2f,0x01,0x0a,0x00, 0xa2,0x02,0x39,0xfe,0x5e,0xfd,0x7f,0x04, // 7408
0xb3,0x01,0xb0,0x01,0x6b,0xfb,0x0d,0x02, 0x2a,0xfe,0x1e,0x03,0x6c,0xfd,0x70,0x03, // 7424
0x03,0xff,0x99,0xff,0xbd,0xff,0x93,0x03, 0x1d,0x03,0x9c,0xfe,0x39,0xff,0xb2,0xff, // 7440
0xfe,0xfd,0x48,0x00,0x33,0xff,0x66,0xfb, 0x56,0x02,0xa1,0x02,0x13,0x01,0xa0,0x01, // 7456
0xb0,0x05,0x3a,0x01,0x43,0x01,0xb5,0xfe, 0xe8,0x02,0x6b,0xff,0x99,0x05,0xec,0xff, // 7472
0x68,0x01,0x4a,0x00,0x2a,0xf1,0xce,0xfe, 0xbf,0xff,0xd0,0x02,0x6f,0xfc,0x7d,0x03, // 7488
0xff,0x00,0xff,0xfc,0x9c,0xf9,0x34,0x02, 0xd2,0x01,0xe8,0x03,0x95,0x01,0xd8,0xfe, // 7504
0xb3,0xfc,0x8d,0x05,0xa1,0xfd,0x76,0x04, 0x55,0x00,0x1a,0x05,0x64,0x00,0xeb,0x05, // 7520
0x25,0xfb,0xf8,0x01,0xa9,0xfd,0x64,0x02, 0x06,0xfe,0x37,0x03,0x7c,0x02,0xce,0x01, // 7536
0xfa,0x05,0x06,0x08,0x16,0x03,0xe0,0x03, 0x3d,0x00,0x46,0x00,0x95,0x00,0xd3,0xff, // 7552
0x3c,0x00,0x91,0x04,0xd7,0xfd,0xab,0x00, 0xdd,0xfd,0x74,0x05,0x13,0x00,0x43,0xff, // 7568
0x6c,0x02,0x5d,0x03,0x17,0x00,0x2c,0x04, 0xf7,0x01,0x12,0xfe,0xd4,0xfa,0x59,0xff, // 7584
0x2e,0x04,0xd6,0xff,0xbf,0xfc,0x9f,0xfe, 0xa9,0x00,0x32,0xfe,0x68,0x01,0xf4,0x02, // 7600
0xda,0x03,0x7d,0x00,0xfe,0x01,0x4a,0xfe, 0x8f,0xff,0xd9,0xff,0xc6,0x00,0x73,0x01, // 7616
0xac,0x02,0x75,0xf5,0x95,0x03,0xc1,0xff, 0xfa,0x00,0xac,0x04,0xdd,0xfd,0x5d,0xff, // 7632
0xf2,0xfe,0x95,0x02,0xb0,0x02,0x50,0x01, 0x19,0xf9,0x04,0x00,0xb6,0xfb,0x05,0xfd, // 7648
0xde,0xfe,0x2f,0xfd,0x63,0xfe,0x7d,0x05, 0x87,0xfe,0x4a,0x05,0xd0,0xff,0x47,0xfa, // 7664
0x5f,0xfa,0xb9,0xfe,0x83,0xff,0x89,0xfa, 0x2a,0x01,0xc4,0x03,0x2d,0x01,0x9a,0x01, // 7680
0x5d,0x03,0x1e,0xfd,0x6e,0x02,0x48,0x00, 0x53,0x02,0x3a,0x01,0x8c,0xff,0x01,0x02, // 7696
0x52,0x02,0x13,0x03,0xa3,0x03,0x2a,0x00, 0xc6,0x00,0x6f,0xfc,0x18,0xff,0xd2,0xf8, // 7712
0xa0,0x01,0x4d,0xff,0x8c,0x00,0x7b,0xf8, 0x58,0x02,0x1b,0x02,0xbe,0xfa,0xbf,0xf9, // 7728
0xb6,0x00,0xf8,0xff,0xc9,0x02,0x49,0xfd, 0xed,0x03,0x83,0x00,0x96,0xff,0xa7,0xff, // 7744
0xed,0xfd,0x99,0xfd,0xb2,0x01,0xbe,0xfd, 0x83,0x05,0xc4,0xfb,0xf0,0x06,0x22,0x02, // 7760
0xb1,0x03,0xc1,0xff,0x25,0xfa,0xbd,0x00, 0x8b,0xff,0xa5,0xfd,0xd7,0xfc,0x76,0xf3, // 7776
0xdc,0xfd,0x0b,0xfc,0x39,0x01,0x1a,0x00, 0xbb,0xfd,0x6d,0xfa,0x55,0x00,0x7d,0xfe, // 7792
0x11,0x01,0x60,0x01,0xe4,0x00,0x55,0xfb, 0xf8,0xfd,0x66,0xff,0x67,0x00,0x3e,0xff, // 7808
0x0b,0x03,0x63,0x02,0x1f,0x00,0x2c,0x01, 0xf5,0xfe,0xca,0xfe,0xff,0xfe,0xf1,0x00, // 7824
0x65,0xff,0x19,0x01,0xc1,0x00,0x54,0x01, 0x83,0xfe,0x3f,0x04,0x33,0xfa,0xe0,0x02, // 7840
0xde,0x01,0x39,0xfe,0xc6,0xfa,0x17,0xfd, 0x20,0xff,0xf1,0xfe,0xf0,0x02,0xd2,0xfe, // 7856
0xb4,0xfd,0x6b,0x00,0xff,0xf7,0x94,0xff, 0x1a,0xff,0xda,0xfe,0xa1,0xfd,0xab,0xfd, // 7872
0xb6,0xf6,0x6f,0x00,0x18,0x02,0x54,0xfc, 0x65,0x00,0x9a,0xfd,0xcf,0xfd,0x65,0x04, // 7888
0xf9,0x01,0x31,0xfe,0x8e,0xff,0x39,0x00, 0x15,0xfd,0xde,0xfb,0xdc,0xff,0xf2,0xff, // 7904
0x50,0x02,0x17,0xff,0x3a,0xfe,0xd9,0x01, 0xdf,0xfc,0xae,0x01,0x86,0xfd,0xcf,0x02, // 7920
0x61,0x00,0x46,0xff,0xba,0x03,0xff,0x01, 0x8c,0xfd,0xf8,0xfc,0xf0,0x00,0xf3,0xfc, // 7936
0x96,0xff,0x17,0x01,0x65,0xfd,0x90,0x00, 0x16,0x01,0x96,0xff,0xda,0x00,0x7d,0x00, // 7952
0xda,0xff,0xb8,0xfc,0x8d,0x02,0x5f,0xfe, 0x70,0xfb,0xee,0xff,0x21,0x02,0xc1,0x02, // 7968
0x51,0x01,0x19,0xff,0x8e,0x01,0x9a,0x00, 0x29,0xff,0x87,0xfe,0x56,0x01,0xc2,0xf8, // 7984
0x7e,0xfa,0x93,0x03,0xca,0x01,0x26,0x00, 0x74,0x02,0x29,0x01,0x30,0xff,0xe8,0x01, // 8000
0x40,0xfd,0x7f,0xfa,0x24,0xf5,0xd3,0x02, 0x7c,0xf7,0x54,0x00,0x28,0xfe,0x79,0xfa, // 8016
0x9c,0x01,0xe7,0xfe,0x64,0xf9,0xab,0xff, 0xb9,0x02,0x86,0xfe,0x7d,0x01,0x54,0x06, // 8032
0x24,0xff,0x07,0x01,0x7e,0x03,0x16,0x04, 0x08,0x03,0xe0,0xfe,0xda,0x02,0xb7,0xf9, // 8048
0x2c,0x01,0xbb,0xf9,0x06,0x05,0xaa,0xfb, 0x9b,0x01,0x53,0xfc,0x34,0x00,0x8e,0x02, // 8064
0x35,0x05,0x0f,0x01,0x8e,0xfe,0x0f,0x02, 0x49,0xfe,0x45,0xfe,0x22,0x00,0xad,0xfa, // 8080
0x16,0xf2,0xe3,0xfd,0xcd,0xfb,0x41,0xf7, 0x8a,0x02,0x09,0x00,0xc7,0x01,0x90,0xff, // 8096
0xd2,0x00,0xa6,0x01,0x89,0x00,0x2d,0x03, 0xcc,0xfd,0x54,0xff,0xb0,0xf6,0x84,0xf5, // 8112
0xe0,0xff,0x38,0xfb,0x29,0x04,0xb4,0xf9, 0x20,0xfb,0x56,0xfd,0x95,0xf3,0x5e,0xfd, // 8128
0x55,0x00,0x9c,0xf7,0x9e,0xfe,0x75,0x01, 0x81,0xfb,0x1b,0xfe,0x3c,0x02,0xf2,0xfc, // 8144
0x12,0xff,0x1c,0x01,0xe4,0x02,0xb6,0xfe, 0x99,0xfe,0x7c,0x00,0x33,0xfa,0x72,0x02, // 8160
0xa7,0xfe,0xd3,0xff,0x18,0x01,0x8d,0xfc, 0x50,0xfd,0xb9,0x02,0x4b,0xfd,0x11,0x02, // 8176
0x90,0x01,0x1f,0xfc,0x72,0x07,0xd0,0x01, 0x98,0xfd,0xa3,0xfd,0xaf,0xfc,0xbb,0xfc, // 8192
0xbc,0x00,0x0f,0x02,0xd8,0xfd,0xba,0x01, 0x23,0x00,0x76,0x02,0xd8,0xff,0x85,0x03, // 8208
0x7b,0xff,0x57,0x00,0x74,0xff,0x56,0xfe, 0x62,0xfc,0xaa,0x03,0x7e,0xfe,0x23,0xff, // 8224
0x82,0x04,0x03,0xff,0x6e,0xfa,0xab,0x01, 0x91,0x00,0x09,0xfc,0xa2,0x00,0xc6,0xfe, // 8240
0x6d,0x00,0x04,0x02,0x6c,0xfe,0x4a,0xff, 0xe5,0xfe,0xe5,0x00,0x16,0x03,0x65,0xfa, // 8256
0x41,0x01,0x04,0x02,0x0b,0x00,0xb5,0xfd, 0xba,0xf7,0x0a,0xfd,0xda,0x01,0x79,0xfa, // 8272
0x8e,0xf7,0xca,0xfd,0x5b,0xfa,0x61,0x00, 0x03,0x01,0xe4,0x03,0xfe,0xf6,0xda,0x02, // 8288
0x80,0xff,0xdb,0xff,0xba,0xfa,0x70,0xfb, 0xf2,0x02,0x97,0xfe,0xa0,0xfa,0xc2,0x00, // 8304
0x37,0xfc,0x9b,0xff,0x3e,0xfb,0xfb,0xfd, 0xaa,0xfd,0x80,0xfe,0xba,0x03,0x8f,0x03, // 8320
0x5e,0xfc,0x15,0x02,0x66,0x00,0x0b,0xfd, 0xec,0xfd,0x75,0xfe,0x61,0xfe,0x3a,0xfe, // 8336
0x4a,0x00,0x44,0x00,0x16,0x02,0x6b,0xfe, 0x59,0x03,0x1c,0x03,0xa8,0xff,0xe1,0xfe, // 8352
0x1c,0xfd,0xfa,0x01,0xcf,0xfe,0x22,0xfa, 0x1d,0xf8,0x88,0xfd,0x4e,0x02,0xb0,0xfe, // 8368
0xae,0x00,0xa1,0xff,0x17,0xf9,0xd6,0x01, 0xaf,0x00,0xac,0x00,0x50,0x02,0x89,0x02, // 8384
0xd0,0x01,0x95,0x01,0x21,0x02,0xaf,0x03, 0x5d,0xfb,0x65,0x00,0x85,0xff,0xe4,0xfd, // 8400
0xc7,0xfd,0x69,0x01,0xda,0xfb,0x6b,0x01, 0x6b,0xf3,0x24,0xfe,0xae,0xfd,0x2d,0x01, // 8416
0xd9,0xf9,0x52,0x02,0xf0,0xfd,0x5a,0x00, 0xf5,0xfe,0x84,0xfd,0xb6,0xfd,0x76,0x02, // 8432
0x96,0xf6,0x12,0xfc,0x5c,0x03,0x39,0x01, 0x95,0x02,0x22,0x02,0x9b,0xfd,0x7a,0x02, // 8448
0x88,0xfb,0x6d,0x00,0xde,0xfb,0x21,0x01, 0x94,0x00,0x17,0x06,0xe5,0x01,0xe2,0xff, // 8464
0x8c,0xfe,0x90,0xfd,0x18,0xfd,0xa1,0xfd, 0xab,0xff,0xa9,0xfd,0x0b,0x01,0xf7,0x03, // 8480
0xe6,0x02,0x50,0xfd,0x1d,0x02,0xbe,0xf8, 0xb7,0x00,0xe6,0xfc,0x51,0xfb,0xf8,0x01, // 8496
0x22,0xfa,0x05,0xff,0x5c,0xfe,0x36,0xfe, 0xfd,0xff,0x2f,0xff,0x68,0x01,0x28,0xfc, // 8512
0xb0,0x00,0x1e,0x01,0xd8,0x00,0x4d,0x02, 0x86,0xf9,0x95,0x02,0x25,0x00,0x35,0x00, // 8528
0xa5,0x02,0xa6,0x02,0xd1,0xf5,0x08,0xff, 0x44,0xfa,0x4f,0xfe,0xcd,0xfd,0xd0,0x03, // 8544
0x38,0x02,0x0c,0xff,0x02,0x02,0x89,0x04, 0x88,0x03,0x1d,0xfd,0x4f,0x01,0xc4,0xff, // 8560
0xaa,0xf8,0x79,0xff,0x23,0x05,0x1a,0x02, 0x4e,0x05,0x24,0xfe,0x77,0xfe,0xfd,0xfd, // 8576
0xea,0xf7,0x51,0x01,0xea,0x02,0xe0,0x02, 0x44,0x01,0x0e,0xff,0x4b,0xff,0xec,0x00, // 8592
0x94,0x01,0x6a,0x01,0x29,0xfe,0x08,0xfa, 0x4e,0xff,0x04,0x03,0xba,0x01,0x69,0x00, // 8608
0xc3,0x02,0xff,0x00,0xd0,0xfe,0x73,0xf8, 0x62,0xfe,0x64,0x04,0x6b,0xff,0xa3,0x01, // 8624
0x3b,0x00,0xaa,0x00,0x9c,0x02,0x75,0x02, 0xad,0xfc,0x1b,0x01,0xe0,0xf9,0xd7,0x00, // 8640
0x4d,0xfe,0x54,0x03,0x9d,0x03,0x71,0xff, 0xfc,0x00,0x5b,0xfe,0xfe,0xfb,0x6a,0x05, // 8656
0x0e,0xfc,0xf4,0x02,0x4c,0x00,0x66,0x01, 0x66,0x02,0x36,0xff,0x81,0xfd,0x92,0xfe, // 8672
0xc5,0x01,0xb8,0x01,0xf2,0x01,0x38,0xff, 0xac,0x04,0xe0,0x01,0x6d,0xff,0x9c,0x00, // 8688
0x12,0x01,0x8e,0xfe,0x2b,0xf7,0x90,0xff, 0x3e,0x02,0xc7,0xfc,0xd6,0xfc,0x1b,0xfe, // 8704
0x22,0xf8,0x53,0x01,0x30,0x01,0x5a,0x01, 0x31,0x00,0x23,0xfe,0x72,0x00,0xfb,0x02, // 8720
0x6f,0xfe,0x7b,0xfe,0x16,0xff,0x03,0x01, 0x66,0x01,0xc7,0x03,0xb4,0xf6,0xd2,0x02, // 8736
0xd8,0xff,0x67,0x00,0x1e,0x03,0xfb,0xfe, 0x45,0xfb,0xcf,0x02,0x5c,0x02,0xcf,0xfe, // 8752
0xf3,0x01,0xf2,0xf6,0x6e,0xfe,0xec,0xff, 0x9c,0xfd,0x64,0xf4,0x08,0x01,0xdc,0xfc, // 8768
0x9e,0x05,0xb3,0xfe,0xca,0xfc,0x14,0xfc, 0x07,0xfa,0x89,0x00,0x3f,0xff,0x9b,0xff, // 8784
0x0d,0xff,0xea,0xff,0x40,0x00,0xb0,0xff, 0xe6,0x00,0x22,0x00,0x69,0x00,0x51,0x00, // 8800
0xf2,0x02,0x8f,0xfd,0x69,0x00,0x1c,0x01, 0xe3,0x00,0x04,0xfe,0xa0,0xfe,0x4e,0xff, // 8816
0xfd,0x00,0xda,0xff,0x18,0xff,0x35,0x01, 0x42,0xfb,0xb9,0x02,0xf3,0xfe,0x10,0xf4, // 8832
0x10,0x02,0x52,0x02,0xb8,0x04,0x75,0xff, 0x4e,0x01,0x05,0x00,0xc1,0x00,0xde,0x00, // 8848
0x99,0x01,0x5e,0x00,0x61,0xff,0x34,0x02, 0xca,0xfa,0x15,0x00,0x22,0xfd,0x3c,0xfb, // 8864
0x32,0x02,0xf6,0x01,0x29,0xff,0xd2,0x02, 0xdc,0x02,0xca,0x02,0xb0,0xfe,0x48,0xff, // 8880
0x42,0x01,0xec,0x00,0x39,0x01,0x46,0xff, 0x80,0x03,0xc4,0x01,0xa7,0xf9,0x1a,0xff, // 8896
0x76,0xfd,0x38,0xfd,0x44,0xff,0x72,0xfe, 0x48,0xfd,0xae,0x03,0xa9,0xfd,0x94,0xfc, // 8912
0xe7,0x03,0xe3,0xfd,0x14,0x01,0x92,0xfb, 0xf4,0xfc,0x05,0xfe,0xc1,0xfb,0xc6,0x00, // 8928
0x62,0x00,0x93,0xff,0x22,0xfb,0x5b,0xfc, 0x30,0xfb,0x25,0xfb,0xe2,0xff,0x7f,0xfd, // 8944
0x22,0xff,0x50,0xff,0x7b,0x01,0x48,0xff, 0x82,0xff,0x09,0x02,0xcc,0xf9,0x7d,0x00, // 8960
0xc0,0xfc,0xa2,0xff,0xa6,0xfb,0x40,0xfe, 0x41,0x02,0xd5,0x01,0x35,0x02,0x29,0x00, // 8976
0x4b,0x03,0xe0,0xfe,0x9f,0xfd,0xa6,0x00, 0xf6,0x00,0xfa,0xff,0x28,0xfc,0x24,0xfd, // 8992
0x0d,0x02,0xc6,0x02,0xce,0xf8,0x6d,0x03, 0xb9,0xfd,0x34,0xfa,0xae,0x01,0xd5,0xff, // 9008
0xc6,0x00,0x70,0x00,0x37,0x01,0x8c,0xfd, 0x68,0x01,0x98,0xfe,0x30,0xff,0xca,0xfe, // 9024
0xf9,0x02,0xf5,0x03,0x1d,0xfc,0xa6,0x02, 0x5a,0xfc,0xe6,0xfd,0xcb,0xfd,0xb7,0x00, // 9040
0xfc,0xf5,0xf2,0xfb,0x10,0x01,0xdd,0xfd, 0xd1,0xfe,0x16,0xfe,0xe6,0x01,0xd2,0xfe, // 9056
0x6e,0x01,0xd7,0xf9,0x90,0xff,0x15,0x00, 0x5c,0xff,0x3c,0xff,0x7e,0x00,0x71,0xff, // 9072
0x5b,0x07,0x48,0xfe,0xdc,0xfe,0x62,0xfc, 0x01,0x01,0x34,0x04,0x19,0xff,0x1e,0x03, // 9088
0x9e,0x00,0x60,0x04,0x2d,0xfd,0x5e,0xfe, 0x09,0x01,0x33,0xfe,0xf5,0x01,0x45,0x02, // 9104
0x5f,0xff,0x6c,0xff,0x75,0xfd,0xe2,0xed, 0xa1,0xfc,0x14,0x00,0xad,0x00,0xab,0x00, // 9120
0x50,0x03,0xe0,0xfb,0xc7,0x00,0xf8,0x05, 0x54,0xff,0x21,0x00,0xbc,0x01,0x4a,0xfd, // 9136
0x78,0xfb,0x32,0x00,0xbc,0xfe,0xa8,0xff, 0xbd,0xff,0x90,0xfe,0x95,0x01,0x8c,0x03, // 9152
0xa7,0x01,0xbd,0xff,0x71,0xf4,0xbc,0xf9, 0xef,0x00,0xd3,0xfd,0x63,0xfe,0xe0,0xfd, // 9168
0x48,0xff,0xb2,0x02,0xda,0xfe,0x1b,0xfa, 0x34,0x01,0x81,0xfc,0xa5,0xfd,0xa2,0xff, // 9184
0x85,0xf8,0x55,0xff,0x18,0x02,0x4e,0x00, 0x21,0xfd,0x2a,0xff,0x31,0x04,0x3f,0xfe, // 9200
0x01,0x01,0x8b,0x00,0xc8,0xff,0xf1,0xfc, 0xe2,0x01,0xcb,0xff,0xe4,0xff,0x90,0xfd, // 9216
0xa0,0xfe,0xbb,0xf9,0x8d,0xfd,0x85,0x02, 0x53,0xfb,0xde,0xfe,0x59,0xfd,0x5f,0xf9, // 9232
0xee,0x00,0x9d,0xff,0x09,0xfe,0x2a,0xfe, 0x6a,0x01,0x6c,0xfc,0xdd,0xfb,0xf6,0xff, // 9248
0x78,0xff,0x6e,0xf8,0x99,0x01,0x05,0xfd, 0xb7,0xfc,0x20,0x01,0xb4,0xff,0xb6,0xff, // 9264
0xec,0xff,0x1d,0xff,0xa1,0xfb,0x7f,0xfb, 0x55,0xfe,0x71,0xff,0x31,0xf8,0xe7,0xfd, // 9280
0x01,0x01,0xe8,0x01,0x63,0x00,0x94,0x00, 0x36,0xf7,0x73,0x01,0x14,0x04,0x16,0x01, // 9296
0x94,0xff,0x85,0xf6,0xdf,0xfe,0x5a,0x00, 0xc7,0x00,0xa3,0xfe,0x03,0xff,0x91,0x02, // 9312
0xc3,0xff,0xa7,0xfe,0xee,0xff,0xec,0xfe, 0x4d,0xfe,0x80,0x02,0x1c,0x02,0xb3,0x00, // 9328
0x32,0x02,0xa1,0x02,0x39,0x01,0x4c,0xff, 0x70,0x05,0x14,0xff,0xe2,0xff,0xc5,0xfc, // 9344
0xb6,0xfd,0x5b,0xff,0xb3,0xff,0xd8,0x05, 0xe1,0x01,0x22,0x01,0x0d,0x02,0x96,0xfe, // 9360
0xaf,0xff,0x07,0x02,0x62,0xff,0x76,0x00, 0x08,0x01,0x81,0x00,0xc2,0xff,0xee,0xfe, // 9376
0xbf,0xff,0x2d,0xff,0x35,0x01,0x06,0xfd, 0x56,0x00,0x10,0x01,0xe1,0xff,0x31,0x07, // 9392
0xcc,0x06,0x5b,0x00,0x5a,0xff,0x5c,0x00, 0xe1,0x01,0x37,0x05,0x6e,0x01,0x0a,0xfb, // 9408
0x78,0xf2,0x89,0xff,0x63,0x01,0xaa,0xfb, 0x4d,0xfe,0x71,0xfd,0xa1,0x00,0x9b,0xff, // 9424
0xed,0xfb,0x04,0xfd,0x7a,0xfe,0x30,0xff, 0x67,0x00,0xa8,0xfd,0x45,0xfc,0xab,0xfd, // 9440
0x46,0xff,0xa5,0xfa,0xc5,0xf9,0x7d,0xfe, 0x73,0xfe,0x55,0xfd,0x58,0x02,0xaf,0xfe, // 9456
0x1c,0x03,0x36,0xfb,0x29,0x03,0x8a,0xfd, 0x9b,0xfb,0x24,0xfd,0x6e,0xfe,0x9e,0x01, // 9472
0xd2,0x01,0xbf,0xfe,0xe4,0x01,0x32,0x01, 0x94,0x00,0x5c,0x02,0xec,0x02,0x24,0xf9, // 9488
0xd2,0x00,0x96,0xff,0x8a,0xff,0x4d,0xff, 0xf1,0x05,0x02,0x01,0xeb,0xf8,0xa4,0xfa, // 9504
0x42,0x02,0x04,0x01,0x7c,0xff,0xd1,0xfa, 0x2f,0x01,0x56,0xff,0xc3,0x01,0x1c,0x08, // 9520
0xf9,0xfb,0x53,0xfb,0x84,0xff,0xda,0xfe, 0x1e,0x00,0x7b,0xff,0x8f,0xff,0xfc,0x02, // 9536
0x3d,0xfe,0xd8,0x00,0x54,0x01,0x81,0x02, 0x31,0xff,0x41,0x00,0xf4,0x00,0x8c,0xff, // 9552
0xef,0x00,0x85,0x00,0x98,0x04,0x87,0x01, 0xd0,0x05,0xad,0xfe,0xcd,0xff,0xf6,0xfe, // 9568
0x33,0x00,0x61,0xff,0xd4,0x01,0x1e,0x02, 0x25,0xff,0x83,0xff,0xe4,0xfb,0x8b,0x02, // 9584
0xc7,0x00,0x13,0xff,0x68,0x00,0x6e,0xfe, 0x14,0x02,0xa5,0x02,0x1f,0x01,0x15,0xfe, // 9600
0x99,0xff,0x00,0xfd,0x17,0x01,0xc0,0x02, 0x17,0xfe,0xdb,0xfd,0xea,0xfd,0x95,0xff, // 9616
0xbe,0x02,0x03,0x04,0xf1,0x00,0x62,0x04, 0x74,0x02,0x6c,0x00,0x92,0x00,0xf7,0x04, // 9632
0x32,0x01,0x3f,0x02,0x75,0x01,0x9c,0xfe, 0xfd,0x01,0xbe,0xfe,0x44,0xff,0xd0,0x02, // 9648
0xa6,0xfe,0x39,0xff,0xf6,0x04,0x01,0x01, 0xd8,0x00,0x75,0xfd,0xf9,0x01,0xeb,0xfc, // 9664
0x2e,0x03,0x50,0x01,0xc9,0x03,0x54,0x07, 0x45,0x02,0x07,0xfe,0xa5,0xfc,0x16,0x04, // 9680
0xe4,0x00,0x3d,0xff,0x33,0x00,0x90,0xfc, 0xba,0xfa,0x71,0xfe,0x5a,0xff,0x17,0x02, // 9696
0x76,0xfe,0x0f,0xfe,0xed,0xfe,0x88,0x01, 0xef,0x00,0x15,0xfc,0xa6,0xfb,0x9c,0x01, // 9712
0x9a,0x00,0xa5,0xfc,0x69,0xff,0x5c,0xfe, 0x04,0xfd,0x53,0xff,0x29,0x03,0xba,0xfe, // 9728
0xfb,0xf6,0xe5,0x00,0xf5,0x02,0x57,0x00, 0xff,0xff,0x33,0xfd,0xd2,0xff,0x84,0xff, // 9744
0xd1,0x01,0x17,0xff,0x82,0x01,0x12,0xff, 0x75,0x00,0x8c,0x00,0xa8,0x03,0x7e,0xff, // 9760
0xe3,0x03,0xec,0x02,0x5b,0x01,0x84,0x02, 0x35,0x03,0x7f,0x03,0xaf,0xff,0x1e,0x01, // 9776
0x77,0x01,0x8a,0x04,0x56,0xfd,0xfc,0xff, 0xce,0x00,0xdb,0x00,0x01,0x03,0xde,0xfc, // 9792
0x84,0x02,0x27,0x03,0x93,0xff,0x06,0x02, 0x52,0x02,0xda,0xfe,0xc1,0x03,0x61,0x01, // 9808
0xd1,0xff,0x20,0x00,0xe9,0x02,0x1a,0x04, 0x9d,0x03,0xf7,0x01,0x48,0x05,0x55,0xfd, // 9824
0x0e,0x05,0xbb,0xfb,0x67,0xff,0x22,0x01, 0xbf,0x01,0x43,0xff,0x5c,0xfc,0xb5,0xfc, // 9840
0x18,0xfc,0xb9,0x06,0xd5,0xfc,0x0f,0xfb, 0xde,0x01,0x9a,0xff,0x8e,0x00,0x6f,0x00, // 9856
0x19,0xff,0x7f,0x03,0xa7,0xfc,0xe3,0x02, 0x31,0x03,0x86,0xfe,0xbb,0xfc,0x51,0x02, // 9872
0x41,0xff,0x48,0xfe,0x16,0xfa,0x4a,0xfa, 0x9f,0x01,0x37,0xf9,0x86,0x04,0xf5,0x01, // 9888
0x4f,0x00,0xcf,0xfd,0x53,0xff,0x8e,0xfb, 0x01,0x04,0xa5,0x02,0x10,0xff,0xcd,0x03, // 9904
0xd1,0x02,0x85,0x01,0xda,0x00,0x72,0x05, 0xb3,0x02,0x2f,0xfa,0x31,0x02,0xa4,0xf9, // 9920
0xd2,0xfb,0xbf,0xff,0xc4,0xfc,0x46,0x02, 0x24,0xfe,0xcb,0xfc,0x7d,0xff,0xe7,0xfe, // 9936
0x47,0x00,0xbd,0xfe,0xe4,0x00,0x1b,0xfe, 0x3d,0x05,0xab,0xfc,0x69,0x03,0x28,0xfe, // 9952
0x60,0x03,0xa3,0x00,0xba,0xfc,0x36,0x05, 0xfc,0x01,0x77,0xfe,0xff,0xfd,0xcc,0xfc, // 9968
0x9b,0x00,0x5d,0x00,0x2c,0xfe,0x70,0x01, 0xb8,0xfc,0x98,0xff,0xe5,0xff,0x8f,0x02, // 9984
0xc4,0xfd,0xce,0x01,0xa4,0xfe,0xe5,0x05, 0x0d,0xfa,0x07,0x04,0x34,0xf6,0x62,0xfc, // 10000
0x9c,0x02,0xb1,0xfb,0xbe,0x00,0xdd,0xfa, 0x05,0xfb,0x62,0xfe,0x6d,0xf9,0x65,0x01, // 10016
0x96,0x00,0x28,0xfa,0x1d,0xfe,0xbd,0xfc, 0x2d,0x04,0xd7,0x08,0xb5,0xfa,0x9b,0xfa, // 10032
0x0c,0xff,0x37,0xfe,0xb9,0xfe,0xcd,0xfa, 0x8a,0x05,0xe4,0xfd,0xdd,0xfe,0x54,0xfe, // 10048
0x9c,0xf9,0x9c,0x02,0x5f,0x06,0x3a,0xfb, 0x25,0x01,0xb1,0xfa,0xdd,0xff,0xab,0xff, // 10064
0xf2,0xff,0xef,0x00,0xc4,0xfe,0x7a,0x00, 0x21,0xfc,0xe2,0xfd,0x40,0xfd,0x71,0xfe, // 10080
0xfb,0x02,0x0e,0xf7,0xe7,0xfc,0x54,0xf8, 0xd8,0xff,0x85,0xff,0x5f,0x02,0x7c,0xfd, // 10096
0x1e,0x01,0x70,0xfc,0x52,0x02,0xdb,0xfe, 0xc0,0xfd,0x2e,0x01,0x93,0x00,0x6b,0xfb, // 10112
0xb7,0x01,0xa9,0xfc,0xf4,0xfe,0x16,0x00, 0xda,0xfd,0xa5,0xfe,0x00,0x03,0x90,0x03, // 10128
0x36,0xfe,0xef,0x03,0x99,0xfc,0x0a,0xff, 0x0c,0xfe,0x46,0x04,0x02,0x00,0x3c,0xf7, // 10144
0xf1,0x01,0x8f,0xff,0xdb,0xfe,0x6f,0xf8, 0x99,0xfd,0x5f,0x01,0xa5,0x00,0x14,0x04, // 10160
0xb8,0x00,0x68,0x04,0x4d,0xfd,0x76,0x03, 0xa6,0xfd,0xe5,0xff,0xd0,0xff,0x9d,0xfd, // 10176
0x8e,0x01,0xc1,0xfc,0xa4,0xfc,0x7e,0x01, 0xc0,0xfe,0x5b,0x00,0x43,0xfd,0x17,0xfd, // 10192
0xf3,0xfa,0x70,0xfe,0x21,0xf8,0x2b,0xff, 0xa5,0x01,0x00,0xff,0x0a,0xfd,0x28,0xf4, // 10208
0xb9,0x01,0x8d,0x04,0xbc,0xfc,0xb3,0xfb, 0xdf,0xfc,0x1b,0xff,0x9d,0xff,0x9f,0x00, // 10224
0x6a,0x04,0xa2,0xfa,0xa4,0xfa,0xdb,0x04, 0x19,0x01,0x84,0x02,0x70,0xfd,0x0e,0xf7, // 10240
0xd8,0xfd,0x77,0x00,0xa2,0x00,0xb6,0x04, 0x71,0x03,0x60,0xfd,0x5f,0xf7,0xfb,0xff, // 10256
0xf9,0x03,0x83,0xfd,0x67,0xff,0x19,0x00, 0xd7,0x00,0x95,0xfe,0xfa,0x03,0x08,0xfb, // 10272
0x86,0xfd,0x7d,0xff,0x96,0x02,0x12,0xff, 0xa9,0xff,0xbd,0x02,0x37,0x03,0x4b,0x01, // 10288
0xc0,0x00,0x59,0x00,0x88,0xfd,0xc1,0xfe, 0xe7,0xfe,0xd6,0x03,0x34,0xfd,0xda,0xfc, // 10304
0x96,0x02,0xc4,0x04,0xb4,0xfd,0x3e,0x01, 0x3a,0x01,0xd1,0x02,0xde,0xfd,0xbd,0xff, // 10320
0xd5,0x01,0x67,0x02,0xc8,0xfb,0x64,0xff, 0x07,0x02,0x5f,0xfd,0x92,0xfe,0xf3,0x00, // 10336
0xb2,0xfc,0x1e,0x05,0x3c,0x05,0x17,0x03, 0x57,0xfe,0xff,0xfe,0xd2,0x02,0xb2,0x04, // 10352
0xba,0x02,0x40,0x02,0x37,0x01,0x09,0x00, 0xc1,0x02,0x43,0x03,0xa9,0x00,0xe3,0xfd, // 10368
0x94,0xfe,0xb1,0xff,0xf6,0xfe,0xde,0xfc, 0xf0,0x00,0xc4,0xfe,0x7c,0xfd,0x4d,0x00, // 10384
0xc4,0xff,0x10,0x02,0x2f,0x00,0xb3,0xfe, 0x6b,0xfc,0x47,0x07,0x30,0x08,0xe8,0xff, // 10400
0x6a,0x01,0x98,0xfd,0x7f,0x00,0x95,0x03, 0xdf,0xff,0x2b,0x00,0xbe,0x00,0x21,0x01, // 10416
0x85,0xff,0x2c,0x02,0x1d,0x01,0xb7,0xfc, 0x10,0xfd,0x35,0xfc,0x64,0x00,0xb3,0xfe, // 10432
0x1b,0x00,0x2c,0xff,0x53,0x00,0xc6,0x00, 0xdd,0xff,0x6f,0xfa,0xa7,0x00,0x9b,0xfc, // 10448
0xd6,0x03,0x56,0xfd,0xbb,0xff,0x99,0x03, 0x79,0x00,0xb8,0xff,0x95,0x01,0xb0,0x01, // 10464
0x27,0x03,0x8c,0xfc,0x8e,0x00,0x6d,0xfe, 0x7e,0x00,0x1d,0x00,0x4a,0xfd,0x25,0x00, // 10480
0xf0,0xfc,0xae,0xfd,0x21,0xfb,0xdd,0x00, 0xa6,0x00,0x76,0x02,0xef,0xfc,0x22,0x00, // 10496
0xb6,0xfb,0x6d,0xfd,0x92,0x05,0xcf,0xfe, 0x8e,0x02,0xda,0xfe,0x5c,0xfe,0x87,0xfe, // 10512
0x7c,0xfe,0x45,0x00,0x5a,0xff,0x66,0x00, 0xdd,0xfc,0xc0,0xfd,0x4a,0x00,0x65,0xf7, // 10528
0x89,0xfb,0xfa,0xfd,0xcb,0xfd,0xc0,0x02, 0x40,0x02,0x3b,0xfc,0x99,0x01,0x1c,0xfc, // 10544
0xb3,0xff,0x4e,0x01,0xd1,0xfb,0x35,0x02, 0x97,0xff,0x1f,0xfc,0x3e,0x01,0x09,0xfd, // 10560
0x36,0xff,0x0c,0x00,0x36,0x01,0xe9,0xfe, 0xde,0xfa,0x72,0x02,0x0b,0x00,0x15,0x05, // 10576
0x2d,0xfb,0x30,0xfc,0x05,0xff,0x75,0x01, 0x4e,0x05,0x44,0x00,0xdf,0x01,0xfb,0x02, // 10592
0xd9,0xff,0x8c,0xfe,0xb1,0xff,0x04,0xff, 0x58,0x01,0x12,0x01,0xe1,0xfe,0xa8,0xfe, // 10608
0xa9,0xfe,0x36,0xfd,0xce,0xfc,0x81,0x01, 0x17,0xff,0x17,0x01,0xd0,0xfc,0x1c,0x00, // 10624
0xcc,0x00,0x5e,0xff,0x91,0xf8,0x0b,0xf8, 0x1e,0x01,0xc4,0x02,0x97,0xf7,0x54,0x01, // 10640
0xa3,0xff,0xe1,0xfd,0x1a,0xfd,0xa0,0x00, 0x8a,0xfe,0xd8,0xfe,0x2d,0xff,0x0a,0x01, // 10656
0x86,0x00,0x7a,0x0a,0x6c,0x02,0x62,0x00, 0xac,0xff,0x05,0xff,0x93,0x05,0x5f,0x02, // 10672
0x2c,0xfd,0x3d,0xff,0x46,0xfc,0x94,0xff, 0x1b,0x05,0x94,0x05,0xa1,0x02,0x00,0x00, // 10688
0x8a,0xfe,0x0e,0xfb,0xa7,0xfa,0x4e,0x04, 0xe3,0xff,0x57,0xfb,0xbd,0x03,0xd7,0xfe, // 10704
0x3e,0x01,0xa8,0xfd,0x62,0xff,0xf3,0xfd, 0xd5,0x00,0xcb,0x00,0xbe,0x01,0x68,0x01, // 10720
0x75,0xfd,0xa9,0xff,0x64,0xfd,0x14,0x00, 0x0f,0x08,0xe0,0xfc,0x95,0x00,0x44,0xfb, // 10736
0x07,0xf4,0x1b,0x03,0x81,0xfe,0xd3,0x02, 0x5e,0x01,0x1e,0xfa,0xb9,0xff,0xb5,0xff, // 10752
0xdd,0xfd,0x3f,0xfa,0x9e,0xfe,0xdb,0xfd, 0x79,0x01,0xf2,0xfd,0xb3,0xf9,0x09,0x02, // 10768
0x8c,0x02,0x4c,0xfd,0x1d,0x03,0x62,0x00, 0xd4,0x00,0xe8,0x00,0xf8,0xfc,0x17,0xfd, // 10784
0x30,0xf5,0xb2,0xff,0x48,0x03,0xa8,0xf9, 0x9f,0x03,0x2a,0x00,0xe5,0xfd,0xe0,0xfe, // 10800
0x30,0xfe,0xc6,0x04,0xdb,0xfc,0xa3,0xff, 0x70,0x00,0xcf,0xff,0xf0,0xff,0xd9,0x00, // 10816
0xb1,0x03,0xc2,0x00,0xd0,0x00,0x23,0x04, 0x46,0x00,0x97,0xfe,0x6b,0xfc,0xeb,0x02, // 10832
0xbe,0x00,0x37,0xff,0x35,0x00,0x29,0x02, 0xdd,0x00,0x28,0x01,0x0a,0xff,0x12,0xfd, // 10848
0x9b,0xff,0xde,0xfd,0xf3,0xfc,0xec,0xfd, 0xc1,0x00,0x12,0xff,0x74,0xff,0x1b,0xfc, // 10864
0x17,0x02,0x82,0x02,0x4e,0xff,0xfe,0x00, 0xf1,0x02,0x00,0x02,0x9e,0x01,0x3d,0xfc, // 10880
0xb0,0xf6,0xa4,0xfe,0x86,0x02,0xa8,0xfc, 0x4a,0xff,0x4d,0xf3,0x52,0x04,0x79,0x00, // 10896
0x66,0x04,0x01,0x04,0x30,0x03,0x8c,0x00, 0x38,0xfc,0xf9,0x02,0x1a,0xf8,0xc9,0xfa, // 10912
0xbb,0xfd,0xcd,0x00,0xec,0x01,0xbf,0xfe, 0xb0,0xff,0x4a,0x03,0x5c,0xf2,0xa7,0xfb, // 10928
0x58,0xf7,0x5b,0xfe,0x73,0xff,0xf3,0x02, 0xba,0x03,0x83,0xfd,0x5d,0x03,0xff,0x02, // 10944
0x3d,0x02,0x6b,0xfb,0x75,0x03,0xc8,0xf9, 0x11,0x02,0x09,0xfe,0x7e,0x01,0xeb,0xff, // 10960
0x43,0x02,0x62,0xfe,0x1c,0xff,0xa6,0xf2, 0xdd,0xfa,0x90,0xff,0xce,0x00,0x12,0xfc, // 10976
0x99,0xff,0x05,0xff,0x8b,0x00,0x2c,0x01, 0x2c,0xfd,0x42,0x02,0xc3,0xff,0x35,0xfc, // 10992
0x44,0x00,0x08,0x00,0xe6,0x00,0xfc,0xfe, 0xe3,0xfc,0x6c,0x02,0xdd,0x02,0xe2,0xfe, // 11008
0x25,0x06,0xc6,0xfc,0x66,0x02,0x6d,0x03, 0x09,0x00,0x30,0xfd,0xa0,0xfe,0x1f,0x02, // 11024
0x69,0xf3,0xf4,0x00,0x2c,0xfd,0xad,0xfe, 0x6e,0xff,0x2f,0xff,0x6d,0x00,0x73,0x06, // 11040
0x6c,0xf9,0xc7,0xf6,0xd1,0x02,0x2a,0xfe, 0x9a,0xff,0xe3,0x00,0x2a,0xfe,0x60,0xfd, // 11056
0x26,0x00,0xcc,0xff,0x42,0x03,0x6f,0xff, 0xb4,0xfb,0xd8,0x05,0x25,0xfb,0x21,0xf7, // 11072
0xfa,0xfe,0x8a,0x02,0xb9,0x00,0x8a,0x00, 0x7f,0x05,0x95,0xf4,0xac,0xfc,0x76,0x03, // 11088
0x9d,0x01,0x87,0x00,0x75,0x01,0x0d,0xff, 0x1b,0xfc,0x88,0xff,0x49,0xfe,0x77,0xfc, // 11104
0x76,0x03,0x6e,0x00,0xbb,0xff,0xfe,0x01, 0x4e,0xff,0x02,0xff,0xa6,0xfa,0x66,0xff, // 11120
0x1e,0x02,0xff,0xf5,0x92,0xfa,0x1b,0x07, 0xed,0x00,0xf8,0x00,0x30,0xff,0xad,0x02, // 11136
0xbf,0x00,0x93,0xfa,0x99,0x02,0x0e,0x03, 0x2a,0xfe,0x70,0x04,0x96,0xfe,0xb4,0xff, // 11152
0x42,0xfc,0x70,0xfe,0xfa,0xff,0x40,0x01, 0x36,0xfc,0x23,0xfd,0x50,0xfa,0xb4,0xfe, // 11168
0x23,0xfa,0x5a,0x00,0xbd,0xf9,0xa9,0x02, 0xbb,0xfe,0xf4,0xff,0x81,0x00,0xb3,0xff, // 11184
0x0e,0x01,0xf0,0xf6,0xd8,0xfc,0xca,0xff, 0x3e,0x03,0xfd,0xfc,0xd7,0x00,0x05,0xfc, // 11200
0xaf,0xf9,0xf6,0xf6,0xdf,0xff,0x49,0x03, 0x57,0x04,0x74,0x00,0xd2,0x00,0x1d,0xff, // 11216
0xfe,0x01,0xb0,0x03,0xfc,0xfc,0x4a,0xfb, 0x80,0x00,0x6e,0xfd,0xc6,0xfa,0xe3,0x00, // 11232
0x78,0x00,0x3c,0x01,0xd2,0xff,0x6f,0xfe, 0x3d,0xff,0xef,0xf6,0xc5,0xff,0xc6,0x01, // 11248
0xb9,0x02,0x82,0xfe,0x3d,0xfc,0xdb,0xfa, 0x4b,0xff,0x0c,0x00,0x4f,0xfd,0x34,0xfb, // 11264
0x82,0x02,0x32,0x01,0xf9,0x01,0x9d,0x03, 0x21,0x01,0x96,0xfd,0x60,0xff,0x49,0xff, // 11280
0xb5,0xfa,0xd6,0xf1,0x7a,0x00,0x2b,0x02, 0x1c,0xfc,0xa3,0x01,0xd8,0xfc,0x55,0xff, // 11296
0x18,0x00,0xe2,0xff,0xf0,0xfc,0x8b,0x00, 0x7a,0x03,0x2c,0xfa,0x9d,0x04,0x7c,0x03, // 11312
0x4e,0xfd,0x94,0x01,0x7b,0xfe,0x03,0x00, 0xcb,0x00,0x6a,0xff,0xf6,0xfc,0x61,0xfe, // 11328
0x27,0x00,0x6e,0x01,0x99,0xfc,0xb8,0x03, 0x4a,0xfe,0x68,0xfe,0x8a,0x01,0x50,0xff, // 11344
0x44,0x05,0x0b,0x04,0x4a,0xfe,0x16,0x02, 0xaa,0xff,0xa6,0x01,0xe0,0xfe,0x56,0x01, // 11360
0xf9,0xfe,0x1a,0x00,0xac,0xfe,0x00,0xff, 0x07,0xfe,0xe2,0xfe,0xce,0xfd,0xd4,0x05, // 11376
0x12,0x00,0x43,0x01,0xde,0x01,0xd2,0xfe, 0xf2,0x05,0x84,0x02,0xa3,0xfd,0x54,0x02, // 11392
0xb9,0xff,0x5f,0x05,0xfc,0xf7,0xd6,0x00, 0x20,0xfc,0x28,0x01,0xf5,0x01,0xbe,0xff, // 11408
0xac,0x05,0x43,0x01,0x8a,0xfd,0xa8,0x02, 0x32,0x02,0x1d,0x01,0xd7,0xff,0x29,0xfc, // 11424
0x4e,0x00,0xba,0xfc,0xb0,0xfe,0xff,0x04, 0xca,0xff,0x5e,0xfe,0x09,0x00,0x2c,0x01, // 11440
0x01,0xf9,0x14,0x06,0x42,0xfd,0x1b,0x02, 0xe4,0x02,0x4b,0x02,0x61,0x03,0x14,0xfc, // 11456
0xa3,0xfe,0xc4,0xf6,0xb2,0x01,0xa4,0x01, 0x9d,0xfd,0xdb,0x02,0x40,0x01,0x29,0x02, // 11472
0x8c,0xfc,0xa2,0xfc,0x8f,0x00,0x14,0x02, 0xbf,0x01,0x16,0x03,0x21,0xfe,0xab,0xfd, // 11488
0x46,0xff,0x2a,0x02,0x48,0x00,0x4f,0xfa, 0x91,0xfe,0x50,0xff,0x45,0xfe,0x73,0x00, // 11504
0x34,0x04,0x85,0x01,0x1e,0x02,0x35,0xfd, 0x66,0x02,0xc5,0xfc,0xcc,0xff,0x24,0xff, // 11520
0x9c,0x00,0x23,0xfd,0x85,0x01,0xdd,0xfe, 0xc4,0x01,0xbb,0x00,0x5b,0xfd,0xb4,0xfb, // 11536
0x55,0x01,0x67,0xfd,0x5f,0x00,0x96,0xfe, 0x29,0xfb,0x1e,0x02,0xd6,0xfe,0x0a,0xfb, // 11552
0x7e,0xff,0xf4,0x01,0xd3,0xfe,0x37,0x01, 0x82,0xfd,0xfc,0x03,0x34,0xfc,0x34,0xfc, // 11568
0x51,0x00,0xdb,0xfe,0x1b,0xfb,0xe3,0x02, 0x1d,0xfe,0x01,0xfc,0x7d,0xfe,0x00,0xfd, // 11584
0x88,0xf8,0x28,0x00,0x58,0xfc,0xbd,0x02, 0x41,0x01,0xc2,0x00,0x28,0xfb,0x91,0xff, // 11600
0x1f,0x05,0xf9,0x02,0xcb,0xfc,0x5f,0xfb, 0xbc,0xff,0x8f,0xfe,0x7f,0x01,0xd3,0xfe, // 11616
0x44,0xff,0xf4,0x00,0x18,0xff,0xf8,0x03, 0xd3,0x04,0x55,0xfd,0x50,0xf7,0x48,0x01, // 11632
0xf5,0x00,0x8a,0xfd,0x4e,0x03,0x87,0x01, 0xb1,0x01,0xc0,0xfa,0x98,0xfc,0x73,0x01, // 11648
0x95,0x02,0x0c,0xfd,0x55,0xff,0xe8,0x01, 0x58,0xfe,0xd1,0xff,0x78,0x00,0xfe,0xfd, // 11664
0xee,0xff,0x9e,0xff,0x79,0xfd,0x8b,0xf9, 0x8d,0x03,0x50,0xfe,0x85,0xf9,0x72,0xfd, // 11680
0xae,0x05,0x2e,0x01,0x11,0x01,0x31,0x01, 0xaa,0x02,0x22,0x03,0xb7,0xfe,0xdb,0xf8, // 11696
0x86,0xfe,0x9d,0x02,0x0a,0xfe,0x33,0xfc, 0x95,0xfa,0x5e,0x04,0xc2,0xfa,0x7f,0x00, // 11712
0x30,0x00,0x6e,0xfe,0xa6,0xfd,0x29,0x00, 0xac,0x00,0x33,0xfb,0x84,0x00,0xf0,0x04, // 11728
0x74,0x01,0xdc,0xfd,0x7e,0x01,0x44,0xfd, 0x8e,0xfc,0xb4,0x03,0xce,0xfc,0xe4,0x00, // 11744
0xaf,0xfb,0x33,0x01,0x8d,0xff,0x1f,0x00, 0x05,0xfe,0x58,0x03,0xe4,0xf9,0x1c,0x02, // 11760
0xa8,0xfe,0xeb,0xfe,0xe0,0x02,0xad,0xfe, 0x50,0xfc,0xc2,0xff,0xea,0x02,0x5e,0x03, // 11776
0x40,0xff,0x0b,0x02,0xaa,0xfe,0xa4,0x01, 0x32,0x00,0x73,0xfc,0x4b,0xfd,0xdc,0xfe, // 11792
0x84,0xfd,0xa2,0x00,0x1f,0xfe,0x6d,0xf7, 0xf0,0x04,0xbc,0x05,0x0d,0xff,0x2c,0xfb, // 11808
0x4c,0x00,0x9a,0xfe,0x4b,0x02,0x0b,0x04, 0xc6,0x01,0x87,0xfc,0x4a,0x01,0x4a,0x01, // 11824
0xac,0xfe,0xd2,0xfe,0x9d,0x00,0x3d,0xff, 0x40,0x02,0x63,0x03,0xe6,0x00,0x65,0x01, // 11840
0x8b,0xf4,0x20,0x03,0x79,0xfe,0x49,0x03, 0x9f,0x03,0xa5,0xfe,0xd7,0x03,0x8f,0x05, // 11856
0xa3,0xfe,0xe3,0x00,0x1f,0x01,0x49,0xf9, 0x0d,0xff,0x96,0xff,0xd4,0xfc,0xb9,0xfe, // 11872
0x78,0xff,0xf3,0xff,0x97,0xfe,0x86,0x06, 0xf4,0xfd,0x15,0xfb,0xcf,0xfd,0x4b,0x02, // 11888
0xb8,0x02,0xad,0x01,0x6b,0x01,0x0d,0xf8, 0x5f,0x00,0xea,0xfc,0x4d,0x06,0x53,0xfe, // 11904
0x1a,0xf7,0xe0,0xfb,0xc3,0x05,0xb4,0x03, 0x5b,0xf8,0xc9,0xf9,0x2f,0xff,0x4a,0xfe, // 11920
0x38,0x02,0x52,0xfd,0x69,0xff,0x2f,0x00, 0xc1,0xfc,0xcc,0xfe,0xf8,0xff,0xed,0xf9, // 11936
0x88,0x04,0xa2,0xfe,0x32,0x00,0x4f,0xff, 0x93,0x01,0x45,0x01,0xaa,0x00,0x29,0xfe, // 11952
0x4d,0xff,0xbb,0x01,0xb9,0xf7,0x79,0x03, 0x5e,0x00,0x67,0x02,0x9d,0xff,0x0c,0x04, // 11968
0x09,0xff,0x3a,0x04,0x4f,0x00,0xda,0xfd, 0x79,0x01,0x68,0xff,0xbf,0xfe,0x99,0x01, // 11984
0xda,0xff,0x94,0x07,0x2e,0x01,0x03,0x02, 0xa2,0xfe,0xac,0x00,0x28,0xfe,0x78,0x01, // 12000
0x07,0x00,0xf3,0x02,0x87,0xfe,0x52,0x00, 0x8f,0x00,0xeb,0xff,0xf9,0xfc,0x97,0x06, // 12016
0xd3,0xff,0xc4,0x03,0xd6,0xff,0x11,0x04, 0xc5,0x07,0x0e,0x02,0x11,0x01,0xf6,0xfc, // 12032
0xdd,0x03,0x75,0xff,0x9f,0x00,0x80,0x02, 0xbb,0xff,0x5e,0x05,0x8d,0xfc,0x01,0x00, // 12048
0x0f,0x03,0xbd,0x04,0x89,0xfc,0xb7,0x01, 0xa3,0x04,0xa3,0x02,0x84,0x01,0x97,0xfd, // 12064
0x8e,0xf8,0x98,0x08,0x5c,0x00,0x47,0x01, 0x2b,0x06,0xab,0xff,0x60,0x07,0x4e,0x00, // 12080
0x81,0xfe,0x65,0x03,0x40,0x04,0x15,0xfe, 0x5f,0x01,0xb7,0xfe,0x70,0x02,0xbc,0x01, // 12096
0x89,0x04,0x00,0x05,0x62,0xfd,0xf8,0x00, 0x91,0x02,0x44,0xfd,0x21,0xfd,0x7a,0xff, // 12112
0x5a,0xfe,0x4b,0x02,0xf8,0xff,0xe6,0x03, 0x0b,0xfc,0x4d,0xff,0xb5,0xfe,0x13,0xff, // 12128
0x78,0xfe,0x55,0xfd,0xd6,0x00,0x31,0xfd, 0xf8,0x00,0xa8,0x01,0x7c,0xff,0x2a,0xfe, // 12144
0x60,0x04,0xe4,0x03,0x3f,0x00,0xae,0xfc, 0x4e,0xff,0x29,0x02,0x0b,0x00,0xdd,0xfb, // 12160
0x22,0xfb,0x03,0x01,0x61,0x00,0x31,0x00, 0x76,0x00,0xd7,0x02,0x48,0x01,0xd0,0x04, // 12176
0x10,0xff,0x72,0x00,0x2c,0x00,0xa8,0xfd, 0x4e,0xff,0x42,0xff,0x0d,0x04,0xe4,0x03, // 12192
0x2c,0xfe,0x86,0xf4,0xa9,0x02,0x59,0x02, 0x75,0x01,0x08,0x00,0x4d,0xfe,0x3e,0x04, // 12208
0xfd,0xfe,0x37,0x00,0x3d,0x00,0x72,0x00, 0xc1,0x02,0x53,0xff,0xa6,0xff,0xdc,0x01, // 12224
0x56,0x01,0x14,0x01,0xa5,0x01,0xf7,0xfd, 0x3b,0x03,0x76,0xff,0x3d,0xfa,0x95,0xfc, // 12240
0x3a,0xfd,0xeb,0x00,0x1e,0x01,0x7a,0x01, 0x7c,0x01,0xe0,0x02,0xae,0x01,0x99,0xfe, // 12256
0x0a,0xff,0x7d,0xff,0xaa,0xfe,0x68,0x00, 0x94,0xfe,0xae,0x01,0x14,0xfc,0x63,0xfe, // 12272
0xb1,0xff,0x47,0x04,0x39,0xfc,0xb1,0xfc, 0x23,0xfe,0x30,0xff,0x6e,0x00,0xdd,0xf7, // 12288
0x84,0x03,0xad,0x03,0x89,0xfa,0xd3,0xff, 0x86,0x08,0xa2,0xfe,0x42,0x01,0x80,0x03, // 12304
0x2e,0x02,0x8d,0x02,0x56,0xf7,0xd9,0xff, 0x87,0x02,0xdf,0xfc,0x3d,0xff,0x93,0x02, // 12320
0xd9,0xfc,0x7a,0x02,0xdf,0xfb,0x43,0x01, 0xaf,0x00,0x81,0xf3,0xb1,0xfd,0x19,0x04, // 12336
0xb8,0x01,0xc8,0xff,0xba,0x01,0xeb,0xfc, 0xdb,0xfc,0xe3,0x00,0xaf,0xfd,0xc2,0xff, // 12352
0xc4,0xfe,0xde,0xfd,0x4e,0xff,0x9a,0x01, 0xc7,0xfe,0x8c,0xff,0x59,0xff,0x2d,0xff, // 12368
0x3e,0xf9,0xab,0xfe,0x6c,0x01,0xb9,0xfc, 0x63,0x00,0x22,0x00,0x40,0x01,0x98,0xfe, // 12384
0xd6,0xff,0x57,0x00,0x94,0xf9,0xd5,0xfc, 0xbf,0x01,0xf0,0xfe,0x0c,0xff,0x19,0x01, // 12400
0xbd,0xff,0x01,0xfe,0xfa,0xfe,0x7b,0x00, 0x03,0xfe,0xf6,0xfe,0x94,0x00,0x6d,0xfd, // 12416
0x58,0xff,0x39,0x00,0x89,0x02,0x0c,0xfa, 0x1a,0xf8,0xa2,0x02,0x7b,0x00,0xb1,0xfe, // 12432
0xd1,0xff,0xf9,0xfd,0xb9,0xff,0x83,0x03, 0xfc,0x00,0xd9,0xfc,0xac,0x00,0x3c,0xff, // 12448
0xcb,0x01,0x13,0xff,0x22,0x00,0x5c,0x06, 0x54,0x02,0x0a,0x02,0xab,0xff,0xd7,0xfc, // 12464
0xe1,0xfb,0xd8,0xfe,0xa8,0xfb,0x86,0xf1, 0x26,0x02,0x9d,0x00,0xe2,0xfe,0xf9,0xfe, // 12480
0xbe,0xff,0xea,0xf7,0x32,0x00,0x7c,0x01, 0x52,0xff,0xe7,0xff,0x06,0xfd,0x73,0xfe, // 12496
0x7f,0xfc,0x00,0x01,0xa7,0xff,0xf8,0x00, 0xb2,0xfc,0x99,0x01,0x0b,0xff,0x77,0xfe, // 12512
0xf9,0xfd,0xb5,0x01,0xa6,0xfd,0x1b,0x00, 0xe9,0xfc,0xf6,0xff,0x27,0x00,0xe0,0x00, // 12528
0x8a,0x01,0x64,0x01,0x0c,0xfc,0x3d,0xfb, 0x1b,0xfe,0x55,0xfd,0xfe,0x03,0x92,0x00, // 12544
0x5a,0xff,0x53,0xff,0x7d,0xff,0x17,0xff, 0x84,0x01,0xa0,0xff,0xb4,0x02,0x41,0xff, // 12560
0x47,0x04,0xd2,0x00,0xff,0xff,0xc1,0xfb, 0x3e,0xfe,0x02,0x00,0x6e,0xfb,0x89,0xff, // 12576
0x7d,0xff,0xd5,0xfa,0xcf,0xfb,0x00,0xfe, 0x85,0xfd,0xd2,0xfe,0x8c,0xfe,0xae,0xfe, // 12592
0x52,0x00,0x3e,0x04,0x57,0x01,0x70,0xfb, 0x49,0xff,0xf9,0xff,0x12,0x03,0x46,0xfd, // 12608
0xeb,0x02,0xea,0xfe,0x6c,0xff,0x6f,0xfc, 0x79,0xfc,0x9f,0xff,0x70,0x00,0x65,0xfd, // 12624
0x2f,0x01,0x92,0xfd,0x7f,0xfc,0x34,0xfe, 0xc8,0xfd,0x68,0x01,0xe1,0x01,0xbd,0xf6, // 12640
0x90,0x05,0x99,0x01,0xd3,0xfa,0x43,0x07, 0x54,0xfe,0x52,0x02,0x15,0xff,0x25,0xff, // 12656
0xc2,0xfb,0x72,0x06,0x1f,0x02,0xaf,0x01, 0x26,0xfe,0xca,0xfa,0xf3,0x01,0xc1,0xfe, // 12672
0xae,0x00,0x6f,0x04,0xc2,0x01,0x82,0xfd, 0xe0,0xfd,0x85,0x01,0xf9,0xfb,0xc2,0x00, // 12688
0xef,0xfb,0x23,0x00,0xa7,0x01,0x7b,0x02, 0x3a,0xff,0x3f,0xfd,0x47,0x01,0xca,0x02, // 12704
0x1e,0x00,0x01,0x00,0xc0,0x00,0xbf,0xfc, 0xd6,0xfd,0x38,0x01,0x07,0x01,0x8e,0x03, // 12720
0x50,0xf9,0xa8,0x02,0xc2,0x01,0x7b,0xff, 0x9e,0xfc,0xff,0x00,0xf5,0x01,0x87,0x00, // 12736
0xc8,0xfe,0xc0,0xfe,0xf9,0x02,0xc3,0xf8, 0x92,0x05,0xe1,0x01,0x55,0x02,0xdf,0x08, // 12752
0x71,0xfd,0x46,0x05,0x46,0xff,0x4f,0x01, 0xf2,0xfe,0xbc,0x02,0x04,0xfe,0xa6,0xfb, // 12768
0xa6,0xfc,0xf0,0x00,0x8a,0x00,0x7a,0x00, 0xad,0x01,0x79,0x01,0xb2,0x02,0x37,0x00, // 12784
0xe0,0xfc,0xc3,0xfb,0x2c,0x04,0xc4,0xfb, 0xaa,0x00,0x9d,0x01,0xd1,0xff,0x6b,0xff, // 12800
0x6d,0xf8,0x24,0x04,0x05,0xf7,0x24,0xfc, 0x21,0xfe,0xf9,0xf8,0xce,0x04,0xf3,0xf6, // 12816
0x2f,0x03,0x98,0xfc,0xd8,0x01,0xaa,0xff, 0x93,0xff,0xb2,0x00,0x36,0x04,0x8d,0xfa, // 12832
0x25,0xff,0x8e,0x01,0xa8,0xf0,0x2e,0xf8, 0x21,0x00,0xa2,0xfe,0xfd,0x00,0x83,0xf6, // 12848
0x45,0x03,0x8e,0x02,0xc8,0xfb,0xcc,0x03, 0x82,0xfe,0xc6,0x05,0x75,0x02,0x97,0xf5, // 12864
0xf4,0x00,0x90,0xfc,0xb8,0xfe,0x4d,0xfe, 0xd5,0x01,0x0e,0xfb,0xcb,0xff,0x8f,0xfe, // 12880
0x3f,0xff,0x90,0x03,0x42,0x00,0xdf,0xff, 0xe3,0x00,0xcb,0xf7,0x0f,0x00,0x1d,0x02, // 12896
0xfc,0x02,0xc8,0x01,0x35,0x02,0x24,0x00, 0x41,0xfc,0xa4,0xff,0x5c,0xff,0x71,0x03, // 12912
0x3b,0xfb,0x3b,0xfe,0xf3,0x06,0x8f,0x03, 0x5a,0xfc,0x44,0xff,0x66,0xfd,0x83,0x02, // 12928
0x25,0x00,0x08,0xff,0xfa,0x00,0xa4,0x00, 0xb5,0xfe,0x94,0xff,0x32,0x02,0xb1,0x03, // 12944
0x35,0x00,0xcb,0xfc,0x69,0xf8,0xa9,0xfb, 0xd0,0xfe,0x1b,0x01,0xbc,0x01,0x5b,0x01, // 12960
0x43,0x03,0x8e,0x00,0xf8,0xff,0x7f,0xff, 0x03,0x00,0x57,0xfe,0x5d,0x02,0x60,0x07, // 12976
0x0a,0xff,0x57,0xfe,0x53,0x01,0xd3,0xf8, 0xd8,0xfc,0x3a,0x04,0x1d,0xff,0x3f,0x01, // 12992
0xf6,0x01,0x8e,0xfe,0x2d,0x00,0x89,0x04, 0x4d,0x05,0xac,0x03,0x90,0xfe,0x63,0x02, // 13008
0x59,0xfd,0xc3,0xfc,0x79,0xfd,0x35,0x01, 0xa5,0x00,0x04,0x02,0xcc,0x01,0xcd,0x04, // 13024
0xaf,0xf9,0xee,0x02,0xda,0xfd,0xdf,0x07, 0xcc,0xfc,0x6f,0xfc,0x40,0xff,0xa9,0x01, // 13040
0x60,0x02,0xc8,0x01,0x8d,0x01,0x43,0x04, 0x9a,0xfc,0xa8,0x00,0x9e,0xff,0x4e,0xfd, // 13056
0x3b,0xff,0xa1,0xff,0xa3,0xfa,0xde,0x03, 0x57,0xff,0x7e,0xfd,0xbf,0x03,0x65,0x00, // 13072
0x8c,0xfc,0xaf,0x00,0xd0,0xfd,0x02,0xff, 0x93,0xfa,0xe0,0xfd,0x85,0x02,0x60,0x04, // 13088
0xe8,0xff,0x84,0xfa,0x2d,0xff,0xe1,0xf9, 0x95,0xfe,0x20,0xff,0xd2,0x03,0xea,0x00, // 13104
0x54,0xff,0x84,0xfb,0xc8,0x03,0xbd,0xfe, 0xe4,0xfc,0x52,0x01,0x28,0xfb,0xc8,0x02, // 13120
0x3c,0xfe,0xdc,0x06,0x43,0xff,0x58,0xfe, 0x80,0x00,0xc3,0xfe,0xbf,0xfb,0xc3,0x00, // 13136
0xc0,0xfd,0x9f,0x01,0x4e,0x00,0xd5,0xfe, 0xad,0x02,0xa4,0x01,0x56,0xf9,0x03,0xfb, // 13152
0x5b,0x06,0x7a,0x02,0x06,0x01,0x4b,0x00, 0xb8,0xf6,0x5d,0xfd,0x2b,0xfc,0x41,0x02, // 13168
0x03,0x02,0x0c,0xf8,0x45,0x00,0x2a,0xfe, 0x75,0xf4,0x8c,0x05,0x8f,0xfe,0x29,0xff, // 13184
0x9f,0xfc,0x24,0x00,0x14,0x01,0xfe,0x02, 0xb3,0xf8,0xb9,0x03,0xd6,0x03,0xc9,0xfb, // 13200
0x87,0x05,0x41,0xfb,0x20,0x02,0x38,0x02, 0xbe,0x00,0x8c,0xfe,0xfc,0xfc,0xe5,0xff, // 13216
0x9e,0xff,0x2b,0x04,0x64,0x03,0x93,0xfe, 0x9c,0x00,0x4c,0xf8,0x2e,0xfe,0xb8,0x00, // 13232
0xb1,0xfc,0xec,0xff,0x12,0xfe,0x33,0x01, 0x22,0xfd,0x82,0xff,0x98,0x02,0x16,0x06, // 13248
0xac,0x03,0x32,0xfd,0xc5,0x01,0x2d,0xfe, 0x98,0xf8,0x3f,0x03,0x1a,0x00,0x44,0xfe, // 13264
0x00,0x01,0x34,0x02,0x1b,0x01,0x5f,0xfc, 0xde,0xf9,0xbd,0xff,0xb7,0xff,0xf0,0x00, // 13280
0x5b,0xfd,0xd8,0x01,0x2b,0xfe,0x09,0x02, 0xa2,0x00,0x00,0xff,0xa8,0x03,0x98,0xfc, // 13296
0x6b,0xfe,0x5d,0xff,0x3b,0xff,0x21,0xfe, 0x7c,0x02,0x5f,0xff,0xd9,0x01,0x3d,0x07, // 13312
0x22,0x05,0x78,0xfb,0x44,0x01,0xd5,0x00, 0xc5,0xfb,0xed,0x00,0x06,0x03,0xbb,0xf8, // 13328
0xea,0xfc,0x05,0x00,0x0f,0x01,0xeb,0x04, 0x5d,0x02,0x60,0x00,0x6f,0x07,0xde,0xff, // 13344
0xe2,0x01,0xff,0x01,0x2f,0x02,0x64,0x03, 0x49,0xfa,0xa7,0x00,0x71,0xff,0xe3,0x00, // 13360
0x08,0x01,0x0a,0x00,0x12,0x01,0x6f,0x02, 0xc1,0x02,0x1a,0xfe,0x14,0xfe,0xb7,0x03, // 13376
0xe1,0x00,0x1f,0x01,0x18,0xfa,0x7d,0x01, 0x45,0x04,0xb5,0x04,0x5e,0x04,0x51,0x00, // 13392
0x1c,0xfa,0xe0,0x01,0x9c,0x00,0x3b,0x03, 0x81,0xf4,0x41,0xf8,0x9e,0xf9,0xdd,0xfe, // 13408
0x16,0x01,0x84,0x01,0x8a,0x02,0x1b,0xff, 0x73,0x00,0x44,0x02,0x04,0x01,0x28,0x00, // 13424
0x4e,0xfe,0x70,0x00,0x50,0xf6,0x79,0xff, 0x2e,0x00,0x7e,0xff,0xf4,0x03,0x7b,0xfe, // 13440
0xb5,0x02,0x7a,0xff,0x08,0xfa,0xb0,0xfc, 0xb2,0x02,0x39,0xff,0xd2,0xf9,0xf8,0xfe, // 13456
0x6e,0xff,0xb3,0x02,0x7d,0xfd,0x96,0xf8, 0xa3,0xfe,0x49,0xff,0xf5,0x03,0x8a,0xfa, // 13472
0x65,0xff,0x19,0xfd,0x9c,0xff,0x22,0x07, 0x03,0x00,0x0d,0x03,0x62,0xfe,0xcc,0xfa, // 13488
0xa2,0xff,0x2d,0x00,0x35,0xfb,0xe9,0xfe, 0x96,0xff,0x44,0xfd,0xd4,0xfa,0x00,0xfe, // 13504
0x0e,0xfd,0xb1,0x00,0x1e,0x03,0x83,0x00, 0x68,0xff,0xd0,0x01,0x1e,0x01,0x72,0xfe, // 13520
0x36,0x05,0xed,0xfd,0x0e,0x03,0xd2,0xfc, 0xc7,0x04,0x7a,0x00,0x32,0x01,0x26,0xf9, // 13536
0x0e,0xfb,0xda,0x02,0x1d,0x00,0x91,0xfc, 0x70,0xfe,0x6d,0xff,0x47,0x03,0xe8,0xff, // 13552
0xee,0xfc,0xe9,0xfd,0xaa,0xff,0x22,0xfd, 0x49,0xff,0x91,0x02,0x9a,0x02,0xb2,0x01, // 13568
0xce,0xf9,0xfb,0x00,0x21,0xff,0xb9,0xfd, 0x05,0xff,0xf9,0xff,0xed,0xff,0xba,0xfb, // 13584
0x80,0x01,0xbc,0xfe,0x2a,0x00,0x3c,0xf7, 0x58,0xfe,0x16,0x03,0x4b,0x01,0x89,0x00, // 13600
0x50,0x01,0x50,0x00,0x9d,0xfe,0xff,0xfe, 0x4d,0x08,0xc5,0x00,0x31,0x03,0x1a,0xfc, // 13616
0xc7,0xfc,0x0c,0x01,0xea,0xff,0x84,0x00, 0xe7,0xfe,0x40,0x01,0xb7,0xff,0x18,0x02, // 13632
0x43,0xff,0xf8,0x01,0xa0,0xfb,0xe2,0xfd, 0xbc,0x01,0x3f,0xf5,0x94,0xff,0xc3,0xfe, // 13648
0x1d,0x00,0x85,0x00,0x18,0x01,0xf2,0x01, 0x22,0x02,0x7c,0xfe,0x3d,0x01,0x1f,0xfe, // 13664
0x3e,0xfb,0xf5,0x00,0xb3,0xfb,0x7c,0xfd, 0x30,0x00,0x98,0xf7,0x19,0xfd,0x97,0x01, // 13680
0xdd,0x00,0x88,0xff,0xee,0x00,0x5e,0x00, 0x3d,0xfe,0xd2,0xfe,0xd9,0x01,0x7c,0xf4, // 13696
0x85,0x01,0xcc,0xff,0x1d,0xfd,0xd0,0xff, 0x8b,0xf8,0x13,0x00,0x27,0x01,0x8a,0x00, // 13712
0xe9,0x00,0xd9,0x02,0xb8,0xfa,0x4e,0x01, 0x08,0xff,0x1d,0xfe,0xb7,0x00,0xb7,0xfe, // 13728
0x33,0x00,0xdc,0x02,0x0f,0x02,0x30,0x03, 0x6c,0x03,0xa0,0xf4,0x6d,0xfe,0xf8,0x01, // 13744
0x19,0x02,0x1a,0x01,0x35,0x01,0xdf,0x02, 0xd7,0x01,0x7f,0xfe,0x0a,0xff,0x0e,0x04, // 13760
0x25,0x04,0x64,0x05,0x05,0x00,0x30,0x00, 0x6e,0x00,0x3a,0x02,0xa9,0xff,0x7f,0xfe, // 13776
0xe0,0xff,0xa1,0xfe,0x9a,0xfe,0x91,0xfb, 0x1d,0xff,0x31,0xff,0xac,0x00,0x83,0xfb, // 13792
0xbe,0xfd,0x6e,0x04,0x92,0x00,0xab,0xff, 0x9a,0x02,0x7d,0x01,0x52,0xf8,0xa7,0xfb, // 13808
0x8f,0x03,0xab,0x00,0x3c,0x01,0x7c,0xfe, 0xe1,0xfd,0x03,0x00,0x81,0x00,0x27,0xff, // 13824
0xdd,0xff,0xa6,0xff,0xf6,0xfe,0x8b,0xfe, 0xa0,0xff,0xb1,0x03,0x92,0xf8,0xe6,0x04, // 13840
0x50,0x01,0xe3,0x01,0x43,0x01,0x10,0xfd, 0xcc,0xfe,0x9c,0x00,0x6a,0x04,0x26,0x00, // 13856
0x3b,0xff,0x7b,0x01,0x3b,0x03,0xf6,0xfa, 0xad,0xff,0xeb,0x00,0xb7,0xff,0xb4,0xff, // 13872
0x69,0xfe,0x29,0xfe,0x90,0xfe,0x6c,0x00, 0x29,0xff,0x65,0xfd,0x8d,0x01,0xae,0xff, // 13888
0x43,0xfe,0x47,0xfc,0x2f,0xfb,0xe1,0x01, 0xc0,0xf6,0x10,0x00,0x53,0x01,0x30,0x03, // 13904
0xe3,0x00,0x2b,0x02,0x32,0x02,0xdc,0xfe, 0xdb,0x02,0xf6,0x00,0x23,0xfd,0xbe,0xfc, // 13920
0xc3,0xff,0x08,0x00,0x35,0xfd,0xad,0xfe, 0xaa,0x00,0x45,0xff,0x3d,0x02,0x7a,0x04, // 13936
0xa5,0xfe,0xa1,0x00,0x4d,0xff,0xec,0x00, 0xb5,0xfe,0xe6,0x01,0x61,0xfb,0x3e,0xff, // 13952
0x04,0x04,0x9c,0x00,0xb2,0xff,0x19,0x03, 0xed,0x00,0xff,0xff,0x21,0x03,0x8c,0x01, // 13968
0x7d,0x03,0xb9,0x02,0x72,0x02,0x7c,0xff, 0xdc,0xfb,0xe5,0x02,0xa1,0x00,0x9c,0x00, // 13984
0xe4,0xfd,0x72,0xfe,0xb1,0x00,0xa5,0xff, 0xad,0x01,0xa1,0x02,0x0a,0x00,0xe6,0xff, // 14000
0x1b,0x01,0x17,0x02,0xad,0x01,0x1d,0x03, 0x18,0x01,0xc7,0x00,0x44,0xff,0x9f,0xfd, // 14016
0x64,0x01,0x02,0x00,0x86,0xfe,0x57,0x02, 0x78,0xff,0xa6,0xff,0x32,0xff,0x45,0x02, // 14032
0x55,0xfa,0x67,0x02,0xfb,0x00,0x21,0x03, 0x85,0x01,0x17,0x03,0x3c,0x00,0xa7,0xfa, // 14048
0x2e,0xfe,0x05,0xfe,0x1b,0x00,0x3a,0x00, 0xc6,0x02,0x59,0xff,0x1a,0x03,0x92,0xfb, // 14064
0x10,0x03,0x18,0x02,0xae,0x02,0x7c,0xfb, 0x62,0x00,0xf8,0xfe,0xec,0x01,0x6c,0x02, // 14080
0x34,0x02,0x5b,0x02,0xe3,0xfd,0xfc,0x02, 0xe4,0x01,0x7b,0x01,0xb8,0xe6,0x6e,0x01, // 14096
0x00,0xff,0x2a,0x00,0x6b,0x01,0x82,0xff, 0x3b,0xff,0xa9,0x00,0x00,0xf8,0x7a,0xfe, // 14112
0xbb,0xff,0xda,0xfe,0x41,0xfe,0x69,0x02, 0xef,0xf9,0x90,0xff,0xe8,0x00,0x6f,0x01, // 14128
0x0f,0x04,0xcd,0xff,0x83,0x00,0x2e,0xfa, 0x5c,0xfd,0x1c,0x02,0xcc,0xfd,0x1a,0xfd, // 14144
0xab,0x04,0xa9,0xff,0x53,0x00,0xc9,0x02, 0x2b,0x07,0x13,0x00,0xce,0x00,0x65,0xfd, // 14160
0x26,0xf5,0x3d,0x01,0xdf,0x02,0x1e,0x01, 0x93,0x04,0xe1,0xfc,0x7d,0xff,0x1b,0x01, // 14176
0x40,0x01,0x44,0xfd,0x24,0x02,0x5b,0x03, 0x25,0xfe,0x37,0xfd,0xf0,0xfe,0x6f,0xff, // 14192
0x30,0xff,0xeb,0xfc,0x31,0x06,0x2a,0x02, 0x9a,0xff,0x5c,0x01,0xdd,0xfb,0x02,0xfd, // 14208
0xbd,0x04,0x3a,0x01,0xb7,0x01,0xb6,0x00, 0x6e,0xf9,0x74,0x02,0x4b,0x00,0x47,0x01, // 14224
0xfa,0x02,0x9d,0xfc,0x95,0x01,0xd4,0xfe, 0xc1,0xfe,0x50,0x01,0x77,0x03,0x71,0x00, // 14240
0xe1,0xfc,0x30,0xff,0x73,0x03,0x29,0x01, 0x1d,0xfd,0x2e,0xfc,0xc1,0xfd,0x44,0x03, // 14256
0x38,0xed,0x52,0x04,0x7d,0x01,0x77,0x02, 0x61,0xff,0x98,0xff,0xd8,0x00,0xaf,0xff, // 14272
0x11,0xfd,0xd8,0xff,0x47,0x02,0x99,0xff, 0xb5,0x02,0x14,0x02,0xfd,0xff,0xc9,0x03, // 14288
0x30,0xf9,0x02,0xfd,0x60,0xfa,0xdb,0xef, 0x64,0xfa,0xbc,0x04,0xec,0xfe,0xba,0x03, // 14304
0xed,0xff,0x41,0xfc,0xb7,0xfe,0x8e,0x02, 0xa7,0x06,0x9c,0x02,0x8d,0x02,0x2d,0xff, // 14320
0x20,0xfa,0xe7,0x01,0x7e,0x02,0x94,0x01, 0xeb,0xfd,0x0f,0x02,0x8d,0x03,0x1b,0xfc, // 14336
0x35,0x00,0xe3,0x03,0x69,0xf7,0xfa,0xfe, 0x27,0xff,0x55,0xfe,0x1a,0xff,0xf8,0x04, // 14352
0x1c,0xf9,0xfa,0x02,0x71,0xfe,0xca,0xfa, 0x10,0x00,0xcf,0xfa,0xdc,0x01,0x5b,0x01, // 14368
0xae,0x00,0x89,0xfd,0x81,0x00,0x96,0xff, 0x5d,0x05,0x0f,0x02,0x92,0x02,0xa0,0x03, // 14384
0xc8,0x00,0x55,0xff,0xc8,0x00,0xe2,0x00, 0x03,0xfb,0x9f,0xfa,0xe6,0x00,0xb7,0x03, // 14400
0xfc,0xfd,0x42,0xff,0x2c,0xff,0xc5,0x00, 0x3e,0xff,0x2e,0xff,0x09,0x01,0x9b,0xfc, // 14416
0x3e,0x00,0xab,0xfa,0x0b,0x03,0x69,0x00, 0xc6,0x00,0x10,0x04,0x45,0xff,0x1b,0x05, // 14432
0x57,0xfe,0xcd,0xfd,0xfa,0xff,0x8c,0x03, 0x23,0xff,0xc7,0xf9,0x6c,0xfb,0x12,0xfd, // 14448
0x97,0xfe,0xee,0xfe,0xcd,0x00,0xeb,0xff, 0x44,0xfe,0xc6,0x00,0xa1,0xfb,0x5d,0x02, // 14464
0x67,0x02,0x5f,0xff,0x6e,0x02,0xb3,0x00, 0x24,0xfe,0x42,0x00,0xea,0x06,0x36,0x01, // 14480
0xa4,0xfa,0xe9,0xfc,0x6a,0x01,0xd0,0xff, 0x54,0xff,0x5e,0x00,0x5f,0x04,0xc6,0x01, // 14496
0x48,0x01,0x63,0xfd,0x7d,0xfb,0xdb,0xfe, 0xce,0xff,0xcb,0xfc,0xf6,0xf7,0xc5,0x01, // 14512
0x53,0xff,0x0f,0xfd,0x67,0x02,0xfe,0xfe, 0xe4,0x05,0xd6,0x00,0xa8,0x00,0x1f,0xfa, // 14528
0x9b,0xfa,0x46,0x02,0x9d,0x01,0xbc,0xfe, 0x3e,0xfd,0x56,0xff,0x0e,0xfd,0x21,0x01, // 14544
0x3d,0x00,0xf8,0xff,0xb3,0x01,0x4e,0x07, 0x84,0xfd,0x84,0x03,0x49,0x02,0x16,0xff, // 14560
0x0f,0x04,0x1e,0xfe,0xf3,0x00,0xe7,0xfb, 0x34,0x01,0x47,0x05,0x05,0xff,0x9b,0xfb, // 14576
0xdf,0xfe,0x33,0x02,0xc9,0x06,0xb5,0x01, 0x98,0x01,0xa9,0xfb,0xea,0xfa,0xcd,0xfd, // 14592
0xb6,0x00,0x84,0xfe,0x19,0x02,0x0d,0x06, 0x53,0xfe,0xb0,0xff,0xe4,0xfc,0x57,0xfe, // 14608
0x01,0x03,0x52,0x00,0x3e,0xf7,0xc5,0x01, 0x54,0x02,0x8d,0x04,0x56,0xf7,0x15,0x00, // 14624
0x4b,0x01,0x7e,0x01,0x63,0x00,0x57,0xfc, 0x20,0x00,0x34,0x00,0xb5,0x00,0x84,0xf7, // 14640
0xfc,0x03,0x67,0xf0,0xbc,0x00,0x9a,0x03, 0x73,0x00,0x0d,0x01,0xb3,0xff,0x3e,0xfd, // 14656
0xaf,0xf8,0x77,0x03,0x94,0xfa,0x0a,0xfd, 0x95,0x02,0x76,0x01,0xbb,0x02,0x0b,0x03, // 14672
0xe8,0xfd,0x6f,0x01,0xd3,0xf7,0x70,0xfc, 0x00,0x01,0xa9,0xfd,0x46,0x01,0x42,0xff, // 14688
0xed,0xf8,0x57,0xff,0xbe,0x02,0x1d,0x02, 0x02,0x02,0x64,0x03,0xf7,0x02,0x47,0xfa, // 14704
0xc8,0xfe,0xdd,0x01,0xc4,0x02,0xd1,0xf7, 0x07,0x03,0xb7,0x05,0x7d,0xfd,0x65,0x00, // 14720
0x66,0x03,0x16,0xfd,0x0b,0x07,0xbe,0x02, 0x09,0x02,0x4e,0x00,0x1e,0xf7,0x19,0xff, // 14736
0x9a,0xfd,0xe9,0x00,0x6d,0xfe,0x5f,0x01, 0xdb,0xfd,0x17,0xfd,0x0e,0x02,0xef,0x00, // 14752
0xbe,0x02,0xf9,0x01,0x08,0xff,0x75,0x02, 0xe4,0xfd,0x79,0xfe,0xf9,0x01,0x49,0xff, // 14768
0x16,0xff,0x8e,0xfc,0x31,0xfa,0xdc,0xfc, 0x8e,0x03,0x80,0xfa,0x58,0x02,0x05,0xff, // 14784
0xca,0x01,0x6f,0x05,0x8f,0xff,0x5b,0xfa, 0xff,0xfe,0x33,0xf6,0x80,0x00,0x6f,0xff, // 14800
0x87,0xfe,0x42,0xff,0x16,0xfe,0x3d,0x05, 0x66,0x00,0xc0,0x01,0x73,0xff,0x58,0xff, // 14816
0xf6,0xfd,0xd6,0xfd,0x87,0x00,0x19,0xfe, 0xad,0xfd,0x7e,0x01,0x25,0xfd,0xac,0xfd, // 14832
0xf9,0xfd,0xd1,0xfe,0x1a,0xf1,0x8b,0xff, 0x85,0xff,0x7e,0x01,0xb6,0xff,0xbd,0x01, // 14848
0xe1,0x00,0xbf,0xfe,0x1f,0x01,0x0f,0xff, 0x61,0x03,0x7d,0xfe,0xba,0xff,0x2a,0xff, // 14864
0x42,0x03,0x8b,0xff,0xe7,0xfe,0x94,0xfe, 0x19,0x01,0xc8,0xff,0xa9,0x01,0x94,0xfd, // 14880
0x96,0xfd,0x05,0xff,0x0a,0xff,0xaf,0x00, 0x73,0xff,0x1e,0x00,0x26,0xff,0x38,0x00, // 14896
0x3e,0xfe,0x83,0x02,0x1d,0xff,0x42,0x01, 0xec,0x00,0xdb,0xfd,0x8e,0xff,0xca,0x00, // 14912
0xc7,0xff,0x36,0xff,0x22,0x01,0x5d,0x02, 0xb7,0xfd,0x7f,0xfd,0x09,0xff,0x1c,0xfd, // 14928
0x6e,0xfd,0xdd,0xfe,0xda,0x01,0xd2,0xfd, 0xb2,0xfe,0xb2,0xfe,0x02,0x01,0xbd,0xfe, // 14944
0x93,0xff,0xe3,0x01,0xd1,0xfd,0x8e,0xff, 0xc2,0xfe,0x3e,0x00,0xed,0xff,0x07,0xff, // 14960
0xa5,0xff,0xe2,0x01,0x90,0x00,0x2d,0x01, 0xc3,0xfd,0x8d,0xfe,0xd6,0xff,0xb7,0x01, // 14976
0x97,0xfd,0x0c,0xfe,0x88,0xfe,0xec,0xfe, 0xc9,0xfd,0xe7,0xff,0x7b,0xfe,0xdd,0x00, // 14992
0xe0,0xfe,0x60,0x00,0xeb,0xff,0xd5,0xfe, 0x05,0x01,0x0a,0x01,0xbe,0xfe,0x93,0x00, // 15008
0x75,0xff,0x14,0x00,0xb4,0xfd,0xbb,0x01, 0xd5,0xff,0xa9,0xfe,0x1a,0xfe,0x70,0xfe, // 15024
0xc7,0xfd,0x55,0x02,0x85,0xff,0xe0,0xfe, 0xd3,0xfe,0x01,0xfe,0xb9,0xfe,0xbd,0x01, // 15040
0xc1,0x00,0x16,0x01,0x14,0xff,0x92,0x00, 0xb0,0x01,0x41,0x00,0x19,0xff,0x40,0x00, // 15056
0xc3,0x00,0x25,0x02,0x88,0x01,0x3d,0x01, 0xda,0xfe,0xc2,0xff,0x29,0xff,0x55,0xff, // 15072
0x94,0x01,0xca,0x01,0x1f,0xfe,0x37,0xff, 0x35,0x00,0xa0,0xfd,0x64,0xff,0x6a,0xfd, // 15088
0x82,0xfe,0x1a,0x01,0x95,0x00,0x28,0xfd, 0x65,0x01,0x66,0x00,0xa6,0x00,0x88,0xff, // 15104
0x76,0xfe,0x6d,0xfd,0x0e,0x00,0x9c,0xfe, 0x2f,0xfe,0x3f,0xff,0xf5,0x00,0x92,0x00, // 15120
0x5b,0xfe,0xc7,0xfd,0xc6,0xfd,0x53,0x00, 0x36,0xfe,0x97,0x01,0x1c,0xff,0x38,0x00, // 15136
0x8d,0x01,0xe4,0xfd,0xfb,0xff,0x0e,0xfe, 0x98,0xfd,0x6a,0x00,0x32,0xff,0x6e,0xfd, // 15152
0xf5,0x00,0xdf,0xf9,0xb0,0x00,0xa7,0x01, 0x30,0x00,0x27,0x01,0x16,0x00,0xcf,0xf5, // 15168
0x3b,0xff,0xf1,0xff,0x29,0x02,0x50,0xff, 0xc4,0x02,0x16,0x01,0x74,0xfd,0x1f,0x04, // 15184
0x9d,0x02,0x85,0x01,0xb4,0x01,0x6b,0xf8, 0x2f,0x00,0x8c,0x02,0x30,0x03,0x95,0xff, // 15200
0xe6,0xff,0x56,0x01,0x74,0xfe,0x0c,0xfc, 0xa2,0xfd,0x3d,0x00,0xdb,0x01,0xc5,0x05, // 15216
0x12,0x01,0x70,0xff,0x68,0xff,0x3f,0x03, 0x35,0xfe,0xfa,0xff,0x24,0xff,0xbe,0xfc, // 15232
0x8d,0x00,0xe3,0xfc,0x87,0xfd,0xe5,0x04, 0x32,0x01,0x5f,0xf9,0x5d,0x00,0x49,0x01, // 15248
0x0e,0xff,0x94,0xff,0xce,0x02,0xff,0x01, 0x1f,0x02,0xfe,0xfd,0xb8,0x01,0xaa,0x03, // 15264
0xef,0x05,0x64,0x02,0x46,0x01,0x25,0xfd, 0x3f,0xfe,0x3f,0x02,0xc1,0xfe,0xc4,0x00, // 15280
0x3f,0x04,0x1a,0x00,0x71,0x01,0xb8,0x01, 0x6d,0xfe,0xf2,0x00,0x5b,0x00,0xd5,0xfc, // 15296
0x9a,0x01,0x39,0xfe,0xf5,0xff,0xc7,0xfc, 0x76,0x03,0x89,0xff,0x4e,0x02,0x19,0xf9, // 15312
0xdc,0x01,0x3b,0x02,0x98,0xf8,0x78,0x01, 0xd5,0x01,0x85,0xf9,0x91,0xfc,0x2e,0x0a, // 15328
0x96,0xfe,0xe7,0xf8,0x24,0xff,0xea,0xf9, 0xfa,0xff,0xf6,0x02,0x52,0xff,0xdb,0x01, // 15344
0xed,0xf5,0xbf,0x00,0x4b,0x00,0x16,0x03, 0xce,0x01,0x53,0x00,0x38,0xfc,0xf0,0xff, // 15360
0x57,0x02,0xa1,0x01,0xce,0xfe,0x1f,0xfe, 0x48,0xff,0xc9,0xfe,0xd7,0xfc,0xa2,0x01, // 15376
0xf3,0xff,0xa1,0x02,0xa1,0xfc,0x57,0xfa, 0xc8,0x03,0xbc,0xff,0x57,0xf8,0x0e,0xfc, // 15392
0x7b,0x03,0xc3,0x00,0x80,0xfd,0x49,0x03, 0x62,0xfd,0x26,0xf4,0x9d,0x00,0xbe,0x01, // 15408
0x19,0x00,0xd0,0xfd,0xe1,0x00,0xae,0x02, 0x87,0x01,0x0a,0x03,0x0b,0x03,0xaf,0xfd, // 15424
0x3d,0x02,0x47,0xff,0xf2,0x03,0x13,0x04, 0x72,0xfb,0xa5,0x03,0xf1,0xff,0x2f,0xfd, // 15440
0x36,0x02,0x80,0x00,0xfd,0x00,0x8d,0xfd, 0xe8,0xff,0xe3,0x01,0xa8,0xff,0xa1,0x02, // 15456
0x83,0x03,0x67,0x05,0x00,0x00,0xc6,0x02, 0xe7,0xfe,0x72,0xfc,0x4c,0x03,0x65,0x02, // 15472
0x65,0xff,0x57,0x05,0x96,0x01,0x26,0x00, 0x01,0xfb,0x7e,0xff,0xc2,0xfd,0xe6,0x01, // 15488
0x62,0xfd,0xa9,0x01,0xb6,0xfb,0xa2,0xff, 0x00,0xfe,0x14,0x00,0x18,0x01,0x35,0xfb, // 15504
0x01,0x04,0xa3,0x01,0x77,0x01,0x94,0x01, 0x09,0xfc,0xbb,0xfe,0xd6,0xfd,0x5a,0xff, // 15520
0xdb,0xfc,0x75,0xfe,0xb5,0xff,0xd6,0x00, 0xb8,0x06,0x9e,0xff,0xea,0x01,0x7f,0xfd, // 15536
0x0f,0xfe,0x4e,0x01,0xfb,0x00,0x06,0xff, 0xa7,0x02,0x30,0xff,0x46,0x07,0xc2,0x12, // 15552
0xfd,0x03,0xf1,0xf7,0x6a,0x02,0xd0,0x00, 0x95,0x00,0x9d,0x00,0x0c,0xff,0x53,0x01, // 15568
0x2d,0x00,0x5d,0xff,0x09,0xff,0xbc,0xff, 0x0f,0x07,0x7e,0x01,0xd3,0xfe,0xd8,0xff, // 15584
0x06,0x00,0xc3,0xfc,0xe9,0x00,0x57,0x00, 0x55,0xfe,0xd9,0x03,0x31,0x00,0x28,0xff, // 15600
0x65,0xfc,0x1f,0x01,0x51,0x01,0xb9,0xff, 0x61,0x02,0x2d,0xf7,0x56,0x04,0x01,0xfe, // 15616
0x43,0x02,0x75,0x02,0x2c,0xff,0xab,0xff, 0xed,0x01,0x42,0x01,0x6c,0xff,0xa0,0x02, // 15632
0x0e,0xfc,0xcb,0x02,0xa7,0x04,0x1f,0x04, 0xf0,0x00,0x2a,0x00,0x3a,0x00,0x0d,0x01, // 15648
0x86,0x00,0x98,0xfe,0xa9,0x00,0xe3,0xfe, 0xd1,0x04,0x05,0x02,0xe0,0x00,0xcc,0x05, // 15664
0x3d,0x02,0x78,0x02,0x2a,0x07,0xa1,0x02, 0x67,0xff,0x6a,0x03,0x59,0xfd,0x97,0x00, // 15680
0xc7,0x00,0x50,0x01,0x39,0x01,0xef,0xfe, 0x8e,0xfe,0x00,0xfe,0x76,0xfe,0x29,0xfe, // 15696
0xd0,0xff,0x90,0x01,0x72,0x03,0xed,0xfe, 0x1b,0xff,0xa6,0x01,0xc8,0x00,0x9c,0xff, // 15712
0x88,0x00,0xfe,0xfe,0x83,0xff,0x9c,0xfe, 0xb2,0xfc,0x1c,0xfe,0x62,0x02,0xa0,0xfe, // 15728
0x89,0xfd,0x5c,0xfe,0x03,0x03,0x67,0xfd, 0x47,0xfc,0xe6,0x03,0xff,0x01,0xda,0xfe, // 15744
0xcb,0xfb,0x59,0x00,0x9b,0xff,0x36,0x01, 0x14,0x00,0xa9,0xfc,0x26,0xfd,0x5b,0xfe, // 15760
0x70,0xff,0xbc,0x02,0xf0,0xff,0xa0,0xfc, 0x2d,0xfd,0xf4,0xfe,0x0a,0xfb,0xcb,0xff, // 15776
0x96,0x02,0x82,0x02,0x6c,0x00,0x70,0x02, 0x19,0xfc,0x0b,0xf2,0xe3,0x01,0x91,0x01, // 15792
0xdb,0xfe,0xfa,0xfd,0x88,0x01,0xab,0xfb, 0x56,0xfe,0xf7,0x00,0x81,0xfc,0x83,0xfe, // 15808
0x25,0x01,0x51,0xf3,0xc3,0x00,0x4e,0x05, 0x75,0x00,0xa2,0xfd,0x65,0xfa,0xe1,0x00, // 15824
0x36,0xff,0x70,0x01,0xe8,0xfe,0xf9,0xf5, 0x2e,0xfc,0x6c,0xfc,0x62,0x00,0x88,0xfd, // 15840
0xf0,0xff,0xa3,0x00,0xb0,0xff,0xe4,0xfc, 0xe9,0x04,0x15,0x02,0x90,0x03,0x61,0xfd, // 15856
0x1e,0xfa,0xea,0x02,0xe8,0xfc,0xed,0xfc, 0x81,0xfc,0x38,0x00,0xdd,0xf7,0x29,0xfd, // 15872
0xd9,0x02,0x12,0x03,0x48,0x02,0x2e,0xfc, 0x20,0xfd,0x8f,0xfe,0x10,0xfc,0x4d,0xfc, // 15888
0xb0,0x00,0xea,0xff,0xb9,0x01,0x94,0x04, 0x45,0xfd,0x1a,0xfb,0x72,0xfe,0xd4,0xfa, // 15904
0x90,0xfe,0x6a,0xfe,0xca,0xfe,0xd1,0x00, 0x1a,0x01,0xdd,0x01,0x75,0x03,0xb8,0xfe, // 15920
0x25,0x03,0xbb,0xfe,0x3c,0x04,0xdc,0xfe, 0x2b,0xfd,0x32,0x00,0x5b,0xfe,0x38,0x00, // 15936
0xa6,0xfc,0x3d,0xf1,0x7a,0x00,0x05,0xff, 0xb7,0xfd,0xae,0xfc,0x13,0x02,0x6a,0x04, // 15952
0x52,0xf8,0x91,0x00,0xd7,0x00,0x72,0x01, 0x5e,0xff,0xc0,0xfb,0xfb,0x00,0xe3,0xff, // 15968
0xee,0xf9,0xaa,0x00,0xbe,0x01,0xdf,0xfd, 0x3f,0xfd,0xfa,0xfb,0x89,0xfc,0xc7,0x02, // 15984
0x14,0x03,0x90,0x01,0x4e,0x00,0xae,0x01, 0x4b,0x00,0xc7,0xfc,0xfa,0xff,0x93,0xf9, // 16000
0x36,0xfe,0x53,0xf7,0x66,0xfd,0x8e,0xfe, 0xc3,0x00,0x85,0x02,0x8b,0x00,0x7c,0x01, // 16016
0x8c,0xff,0x13,0x03,0xd4,0x01,0x17,0x03, 0x68,0x01,0xa4,0xfd,0xa8,0x00,0xe1,0x02, // 16032
0xba,0x01,0x49,0xf2,0x08,0xfe,0x7b,0x00, 0xbb,0xfe,0xa6,0xf9,0x9d,0x01,0xff,0xf9, // 16048
0x18,0xf5,0x93,0xfd,0xd3,0x02,0x6a,0xfc, 0xd0,0x03,0x5a,0xff,0xbb,0xfd,0xeb,0xf7, // 16064
0xf1,0x02,0xbe,0xfd,0xd7,0x02,0xd0,0x02, 0x07,0x01,0x61,0xf7,0xe6,0x02,0x85,0xf9, // 16080
0x6f,0xf7,0xdf,0xf6,0x93,0x00,0x5d,0x02, 0x0a,0x00,0x07,0x00,0x03,0x00,0xf0,0x00, // 16096
0x5e,0xf9,0xbe,0xfd,0xc3,0x00,0x6d,0xfd, 0x8f,0xfe,0xc5,0xfd,0x05,0x01,0x18,0xfa, // 16112
0x49,0x0b,0x1f,0xfd,0xce,0xfe,0xd3,0x03, 0x84,0xff,0x6f,0xfe,0xe0,0xfe,0x12,0x02, // 16128
0x52,0xfb,0xa6,0xff,0xb9,0x02,0x11,0x06, 0xbd,0xf5,0xd9,0x03,0xdd,0xf9,0x58,0x00, // 16144
0xf2,0x01,0x36,0x01,0x38,0x01,0x98,0x02, 0x40,0xfb,0x84,0xfd,0x85,0x03,0x5b,0xfc, // 16160
0xd7,0xfd,0xeb,0xfe,0x3d,0x01,0x04,0xfb, 0x7f,0xfe,0x30,0x00,0x21,0xfa,0xb8,0xfd, // 16176
0x05,0xff,0xa3,0x01,0x42,0xfe,0x33,0x03, 0xaa,0xff,0xf6,0x03,0xf7,0x00,0xb1,0x01, // 16192
0xf7,0xff,0x55,0x01,0x95,0xfe,0x3e,0x03, 0x8a,0x03,0x1a,0x04,0x1f,0xfd,0x06,0xfe, // 16208
0x6b,0xf9,0xc9,0x03,0x0f,0x01,0x6e,0xff, 0xe5,0xfb,0x4b,0xfa,0xe2,0xfd,0xad,0x03, // 16224
0xef,0x01,0x2b,0x01,0xb6,0xfe,0x3f,0x00, 0x85,0x02,0xd3,0xfd,0x59,0xff,0x11,0x01, // 16240
0xe8,0xfc,0x49,0x00,0xf8,0xfe,0xd3,0x05, 0x8a,0x02,0x3a,0x04,0xeb,0x01,0x48,0xf9, // 16256
0xd1,0x03,0xae,0xfa,0x73,0x00,0x26,0xfc, 0x85,0xf9,0xfb,0x00,0x80,0x01,0x02,0xf9, // 16272
0x80,0x00,0xbf,0xfc,0x7e,0xff,0xb0,0x00, 0xaf,0x06,0x12,0x02,0xea,0xf8,0xb0,0xf3, // 16288
0xa4,0xfd,0xdf,0xff,0x64,0x01,0x71,0xff, 0x02,0xfc,0x49,0x02,0x2f,0xf2,0x57,0x02, // 16304
0x65,0xf2,0xb3,0xfe,0x02,0x00,0x3f,0xf9, 0xf8,0x00,0x71,0x04,0x36,0x04,0xcd,0xfe, // 16320
0x11,0x00,0xbe,0x01,0x54,0x01,0xb0,0xfd, 0x45,0x04,0x23,0xfc,0xf7,0x00,0xe8,0x04, // 16336
0x31,0x01,0x99,0x01,0xed,0x01,0xc3,0xfe, 0x69,0x01,0x7f,0xfd,0x5c,0xf5,0xa1,0xfe, // 16352
0x2d,0x01,0xe0,0xff,0x25,0x01,0xa7,0x03, 0x13,0x02,0x4f,0xfa,0x37,0x00,0x3a,0x04, // 16368
0x31,0xfc,0x4f,0xf3,0x79,0xff,0x1c,0x01, 0xcd,0x02,0xbe,0x01,0x36,0x04,0x12,0x03, // 16384
0x36,0x02,0x1f,0xfc,0x83,0xfe,0xc5,0xf9, 0xe9,0xfe,0x52,0x01,0x1a,0x02,0x3f,0x00, // 16400
0xd4,0x01,0x29,0xfd,0xd1,0xfb,0x19,0xfb, 0x56,0x04,0x21,0x00,0x04,0x00,0x9c,0xff, // 16416
0xf7,0xfe,0xb5,0xfb,0x7e,0x03,0xed,0xff, 0x8a,0xfe,0xf3,0xff,0xd9,0xfa,0x0e,0x08, // 16432
0xee,0x00,0x36,0x06,0x3b,0x01,0x7a,0x00, 0x73,0x05,0xa7,0x00,0x34,0x00,0xc7,0x05, // 16448
0xe8,0xfd,0xca,0x01,0x5d,0x01,0xe2,0xff, 0x77,0x00,0x8c,0x01,0xc5,0x00,0xa4,0xf6, // 16464
0x83,0xfd,0x52,0xff,0xb4,0xfa,0xde,0xff, 0xfb,0x01,0x8c,0x02,0x23,0x02,0x50,0xfd, // 16480
0xe6,0x02,0x1a,0x06,0xfc,0xfc,0x8c,0x01, 0x5c,0x03,0xfc,0xf9,0x48,0xfd,0x0a,0x00, // 16496
0x07,0xfd,0xe9,0x03,0x6b,0xfe,0x40,0xfe, 0xf1,0x01,0xe7,0xff,0x91,0xfc,0xc5,0x03, // 16512
0x75,0x02,0x19,0x05,0xa1,0x00,0xbb,0xff, 0xfb,0x00,0xdb,0x02,0x79,0xfe,0x54,0xfa, // 16528
0xf5,0xfb,0xe9,0xfe,0x4e,0x02,0xd2,0x01, 0xd3,0x02,0xc1,0x00,0xaf,0x07,0x4a,0xfa, // 16544
0xd0,0xfe,0xef,0xf8,0x7b,0x03,0x03,0x02, 0x48,0x01,0x8a,0xfa,0x5e,0x02,0x83,0x01, // 16560
0xb2,0xff,0x97,0x00,0x11,0xff,0x68,0xf9, 0x3e,0xfb,0x0c,0x02,0x06,0x01,0x5a,0x06, // 16576
0x0f,0xff,0xd1,0xfb,0x79,0x00,0xb3,0x02, 0x62,0x01,0xbf,0x00,0x7d,0x01,0xe1,0xfe, // 16592
0xee,0x04,0x1b,0x01,0xb0,0x02,0x11,0x00, 0x7d,0x04,0x2e,0x02,0xe5,0x01,0xd0,0x00, // 16608
0xa0,0xff,0xd5,0xff,0x01,0xfe,0x28,0xfc, 0xbf,0x00,0xda,0xff,0x6d,0xff,0xb7,0xfa, // 16624
0xb6,0xfc,0xab,0x00,0x85,0xfe,0xde,0xfe, 0x71,0x02,0xfa,0xfe,0xb4,0x00,0x70,0xfd, // 16640
0x53,0xf1,0xb1,0x03,0x33,0x02,0xa8,0xfe, 0xc7,0xff,0xb7,0x06,0xa3,0x04,0x11,0xfc, // 16656
0x16,0x02,0x3d,0x02,0x28,0xf7,0xec,0xf9, 0x14,0x00,0x61,0xfa,0xbc,0x01,0xb0,0x04, // 16672
0xba,0x06,0x2b,0x03,0x19,0x00,0x8b,0xfe, 0x5b,0xfb,0xe2,0x01,0x2d,0x05,0x5e,0xfe, // 16688
0xea,0x01,0x9a,0xfc,0x66,0x00,0x80,0xff, 0x23,0x02,0xbd,0xfe,0x2f,0xfc,0xcd,0xf9, // 16704
0x71,0x01,0x68,0xff,0x84,0xfb,0xe8,0x01, 0xab,0xf1,0x8b,0xf9,0x30,0x05,0xab,0x00, // 16720
0xfd,0xff,0x16,0xfb,0xe5,0xf5,0x97,0x02, 0x8f,0x01,0x62,0x02,0xf0,0x01,0x99,0x04, // 16736
0x20,0xfc,0x78,0x00,0x55,0x01,0x06,0xf7, 0x5b,0x02,0x3e,0xfe,0x28,0x05,0xaf,0xff, // 16752
0xd1,0xfc,0x4a,0xfe,0xeb,0xfd,0xa5,0x00, 0x51,0x01,0xba,0x00,0xc4,0xf9,0xb0,0xff, // 16768
0xfd,0xf4,0xcb,0xf8,0x1a,0xfa,0xd5,0xfd, 0x6c,0x02,0x13,0x03,0x81,0x00,0x63,0xfd, // 16784
0x25,0xfd,0x22,0xfd,0x6d,0x02,0xe2,0xfd, 0x1e,0x00,0x4b,0xf8,0x9c,0x02,0xd6,0xfc, // 16800
0x0b,0xfa,0x34,0x00,0x09,0x00,0xbf,0xf3, 0x88,0xfe,0x34,0x00,0x9c,0xff,0x2c,0x04, // 16816
0x77,0xfe,0x94,0xf9,0x38,0x02,0x20,0xfa, 0xfc,0xf8,0x8f,0xff,0x87,0x01,0xa9,0xff, // 16832
0x60,0xfd,0x4d,0xfd,0x04,0x00,0x11,0xfd, 0xe0,0x03,0x7f,0x03,0x0b,0xff,0xf2,0x01, // 16848
0xcb,0x01,0xfe,0x02,0xdb,0xff,0xc7,0x01, 0x33,0xff,0xf9,0x00,0x14,0xfd,0x12,0xfe, // 16864
0x7d,0xff,0x85,0xff,0x17,0x01,0x85,0xf3, 0xa4,0x04,0xdb,0xfe,0x30,0x02,0xd1,0xff, // 16880
0x32,0x02,0x93,0x03,0xef,0xff,0x44,0xff, 0x78,0x03,0xa7,0x00,0xa3,0xff,0xb8,0x04, // 16896
0x98,0x00,0x17,0x04,0x7c,0x00,0x16,0x01, 0x98,0x01,0x54,0x06,0x1a,0xfa,0x74,0xfc, // 16912
0x80,0xff,0x30,0x01,0x4e,0x00,0x6f,0x08, 0x37,0xfe,0x9e,0xfe,0x37,0x01,0x05,0x04, // 16928
0x2b,0xfc,0xaa,0xfe,0x1f,0x00,0x2c,0x03, 0xe4,0x01,0xb6,0xfe,0x08,0x06,0x9e,0x02, // 16944
0xb6,0x00,0xaa,0x00,0x7b,0xfa,0x09,0x06, 0x8c,0x00,0x8e,0xfe,0x2f,0x00,0xa7,0xfe, // 16960
0xf8,0xff,0xd1,0xf3,0x5d,0x00,0x3b,0x02, 0x1c,0x02,0xa3,0xfe,0x13,0x02,0x43,0xfb, // 16976
0x5d,0xff,0x9b,0xfa,0x22,0x03,0xe1,0xfe, 0xc3,0x01,0x73,0x00,0x02,0x02,0x1d,0x01, // 16992
0x22,0x01,0xff,0xfd,0x99,0x03,0xc6,0x03, 0x16,0x05,0xc6,0x01,0x59,0x04,0x42,0x03, // 17008
0xdf,0xff,0x3e,0x01,0x58,0xfe,0xc5,0xfb, 0xc1,0xfe,0xbf,0x04,0x4d,0x01,0x38,0xfe, // 17024
0x58,0x00,0x5c,0x02,0xb6,0x02,0xbd,0xfd, 0x17,0x02,0x21,0x02,0x03,0x04,0xf2,0xfd, // 17040
0x41,0x03,0x8a,0x00,0x02,0x00,0x96,0xf7, 0x57,0x03,0x57,0xfe,0x87,0xf9,0xdf,0x05, // 17056
0xdb,0xf8,0x40,0x06,0xad,0x01,0xb8,0xf2, 0x55,0x05,0xe1,0x00,0xee,0xfe,0x56,0x02, // 17072
0x02,0xff,0x79,0x02,0x70,0x02,0x8b,0x00, 0x92,0xfe,0xb5,0x02,0xaa,0xfe,0xd9,0xfe, // 17088
0x0c,0x00,0x07,0x00,0xe0,0xfc,0x98,0xff, 0x8c,0x03,0xb5,0x02,0xfe,0x02,0x64,0xfe, // 17104
0xf4,0x01,0x96,0x00,0xe3,0x00,0x4f,0x01, 0xf9,0xf8,0xb6,0xff,0x72,0xfe,0x29,0x00, // 17120
0x39,0x03,0xd0,0xf8,0x03,0xfa,0x58,0x00, 0xfe,0xff,0x98,0xf9,0xf3,0xff,0x84,0x00, // 17136
0x6e,0xfe,0x71,0xfb,0x09,0x04,0x5d,0xfc, 0x64,0x04,0xee,0x01,0x23,0x00,0x7e,0xff, // 17152
0x84,0xfe,0x61,0x01,0x11,0xff,0xa2,0xfb, 0x28,0xf9,0xb2,0x01,0xb1,0xfd,0x9a,0xff, // 17168
0xdc,0xf7,0xbe,0x00,0x2c,0x02,0xeb,0xff, 0x78,0xfe,0x1c,0x04,0x75,0xfe,0xc5,0xfd, // 17184
0x94,0x00,0x58,0xfd,0xdb,0x00,0x2d,0x02, 0xff,0xfd,0x59,0x02,0x11,0xfc,0xe5,0x01, // 17200
0xb4,0x00,0x0a,0x03,0x25,0xff,0x78,0xfb, 0xb8,0xfa,0x79,0xfb,0x85,0x01,0x58,0x00, // 17216
0x90,0x01,0xe9,0xfc,0x25,0x02,0x2c,0xfc, 0x68,0xfc,0x4d,0x05,0x2d,0x02,0x78,0xfb, // 17232
0xc8,0x03,0x5e,0x02,0xfa,0x01,0x3d,0x05, 0x32,0xff,0x1c,0xfc,0x38,0xfb,0xb9,0xfc, // 17248
0x71,0xff,0x3c,0xff,0xaa,0xff,0x48,0x00, 0x32,0x03,0x6a,0x00,0x66,0xfc,0x9a,0xfd, // 17264
0xf7,0xf5,0x54,0xfc,0x63,0x01,0xb7,0xf8, 0xe6,0xfd,0x42,0x01,0x18,0x05,0x83,0x00, // 17280
0xee,0x01,0xbe,0xfe,0xc2,0x03,0x45,0xfe, 0x8d,0x01,0x15,0x01,0x65,0x01,0xe2,0xf7, // 17296
0x2a,0x00,0xff,0xfe,0x77,0x01,0x27,0x03, 0xf9,0x00,0xee,0x01,0x8c,0x04,0x06,0xfd, // 17312
0x5e,0xfd,0x40,0x02,0x9b,0xff,0x01,0x02, 0x09,0xf9,0xaa,0xfd,0xe0,0xff,0x80,0x03, // 17328
0xe7,0x00,0x45,0xff,0x4b,0x00,0xe4,0xff, 0x90,0x00,0x54,0x01,0xaa,0x02,0x72,0xf7, // 17344
0x06,0x01,0x87,0x01,0x38,0xff,0x68,0x02, 0xc8,0xff,0x07,0x01,0xbc,0xfc,0x4b,0xfd, // 17360
0x41,0xfa,0x44,0xff,0x23,0xf5,0x6c,0x02, 0x2b,0xff,0x87,0xfd,0x64,0x00,0x04,0xff, // 17376
0xf9,0xfb,0xc7,0x00,0x94,0x01,0x7c,0x00, 0x7b,0x03,0x7e,0xfc,0x80,0xff,0xf6,0x01, // 17392
0x47,0x04,0xcb,0xfe,0x3d,0xff,0xe8,0xfe, 0x61,0x01,0x37,0xfd,0x85,0xfd,0x89,0xfc, // 17408
0xe2,0xff,0x6a,0x02,0xb4,0x00,0xc9,0x03, 0x72,0x00,0xc3,0xfe,0xe4,0xfd,0xcf,0x03, // 17424
0xb0,0x01,0x27,0xfe,0x71,0x01,0xe9,0xfc, 0x7e,0xfc,0x45,0x05,0x9a,0x01,0xd8,0xfe, // 17440
0x89,0xfe,0xa5,0x07,0xe1,0x03,0x8c,0x01, 0xec,0xf2,0xf3,0x00,0xd4,0xff,0x09,0x05, // 17456
0x19,0x02,0x7a,0x02,0x8e,0xff,0xb4,0xfe, 0x2d,0xfe,0xf7,0xff,0x29,0xfe,0x96,0xfc, // 17472
0xf1,0x00,0xa3,0x02,0x6e,0x02,0x74,0x02, 0xb3,0xfb,0xc2,0xfc,0x9f,0x01,0x7c,0xfc, // 17488
0xda,0x04,0xba,0x02,0x9c,0x04,0x85,0xfe, 0x13,0x02,0x06,0x02,0x3d,0x02,0xea,0x01, // 17504
0x09,0x00,0x01,0xfe,0x02,0x04,0x81,0x09, 0xa9,0x03,0x84,0xfb,0xf7,0xff,0xad,0x03, // 17520
0x21,0x01,0xb3,0x00,0x8c,0x05,0x7b,0xfe, 0x64,0xff,0xf7,0xfe,0x28,0xfb,0x67,0xf9, // 17536
0x49,0x02,0xdd,0xfe,0x68,0xfe,0xe8,0xfe, 0xe1,0x00,0x37,0xfe,0x05,0x03,0xbe,0xff, // 17552
0xba,0x03,0x35,0xff,0x7f,0xfe,0x07,0x02, 0xe1,0x00,0xe5,0xfd,0x0c,0x01,0x59,0x01, // 17568
0xca,0xff,0x81,0xfb,0xe9,0x06,0x8e,0xf3, 0xad,0x00,0xf7,0xfe,0x35,0xfb,0x86,0x04, // 17584
0x26,0xff,0x7e,0x00,0x4f,0x04,0xef,0x03, 0x9d,0xfd,0xce,0xfc,0xf8,0x00,0xde,0x01, // 17600
0xac,0x00,0x54,0x01,0xe6,0xfd,0xd4,0xfb, 0xc8,0xff,0x52,0xff,0x01,0xfd,0x31,0x06, // 17616
0xc6,0x05,0xba,0x02,0x3f,0xfe,0xf8,0x03, 0xe7,0x05,0x5a,0x01,0x3c,0xfe,0xaa,0xff, // 17632
0x27,0x01,0x53,0xfd,0xec,0x02,0x08,0xf0, 0xad,0x00,0x93,0xfe,0x68,0xff,0x3d,0xff, // 17648
0x03,0x02,0xa5,0xfa,0x63,0xfb,0x9b,0x02, 0x1f,0x02,0x79,0x01,0x19,0x03,0xe3,0xff, // 17664
